unsigned char my_model_tflite[] = {
  0x1c, 0x00, 0x00, 0x00, 0x54, 0x46, 0x4c, 0x33, 0x14, 0x00, 0x20, 0x00,
  0x1c, 0x00, 0x18, 0x00, 0x14, 0x00, 0x10, 0x00, 0x0c, 0x00, 0x00, 0x00,
  0x08, 0x00, 0x04, 0x00, 0x14, 0x00, 0x00, 0x00, 0x1c, 0x00, 0x00, 0x00,
  0x8c, 0x00, 0x00, 0x00, 0xe4, 0x00, 0x00, 0x00, 0xe8, 0x3b, 0x00, 0x00,
  0xf8, 0x3b, 0x00, 0x00, 0x20, 0x46, 0x00, 0x00, 0x03, 0x00, 0x00, 0x00,
  0x01, 0x00, 0x00, 0x00, 0x04, 0x00, 0x00, 0x00, 0xa6, 0xc2, 0xff, 0xff,
  0x0c, 0x00, 0x00, 0x00, 0x1c, 0x00, 0x00, 0x00, 0x3c, 0x00, 0x00, 0x00,
  0x0f, 0x00, 0x00, 0x00, 0x73, 0x65, 0x72, 0x76, 0x69, 0x6e, 0x67, 0x5f,
  0x64, 0x65, 0x66, 0x61, 0x75, 0x6c, 0x74, 0x00, 0x01, 0x00, 0x00, 0x00,
  0x04, 0x00, 0x00, 0x00, 0x90, 0xff, 0xff, 0xff, 0x12, 0x00, 0x00, 0x00,
  0x04, 0x00, 0x00, 0x00, 0x08, 0x00, 0x00, 0x00, 0x6f, 0x75, 0x74, 0x70,
  0x75, 0x74, 0x5f, 0x30, 0x00, 0x00, 0x00, 0x00, 0x01, 0x00, 0x00, 0x00,
  0x04, 0x00, 0x00, 0x00, 0x9a, 0xc5, 0xff, 0xff, 0x04, 0x00, 0x00, 0x00,
  0x0d, 0x00, 0x00, 0x00, 0x69, 0x6e, 0x70, 0x75, 0x74, 0x5f, 0x6c, 0x61,
  0x79, 0x65, 0x72, 0x5f, 0x31, 0x00, 0x00, 0x00, 0x02, 0x00, 0x00, 0x00,
  0x34, 0x00, 0x00, 0x00, 0x04, 0x00, 0x00, 0x00, 0xdc, 0xff, 0xff, 0xff,
  0x15, 0x00, 0x00, 0x00, 0x04, 0x00, 0x00, 0x00, 0x13, 0x00, 0x00, 0x00,
  0x43, 0x4f, 0x4e, 0x56, 0x45, 0x52, 0x53, 0x49, 0x4f, 0x4e, 0x5f, 0x4d,
  0x45, 0x54, 0x41, 0x44, 0x41, 0x54, 0x41, 0x00, 0x08, 0x00, 0x0c, 0x00,
  0x08, 0x00, 0x04, 0x00, 0x08, 0x00, 0x00, 0x00, 0x14, 0x00, 0x00, 0x00,
  0x04, 0x00, 0x00, 0x00, 0x13, 0x00, 0x00, 0x00, 0x6d, 0x69, 0x6e, 0x5f,
  0x72, 0x75, 0x6e, 0x74, 0x69, 0x6d, 0x65, 0x5f, 0x76, 0x65, 0x72, 0x73,
  0x69, 0x6f, 0x6e, 0x00, 0x16, 0x00, 0x00, 0x00, 0x00, 0x3b, 0x00, 0x00,
  0xf8, 0x3a, 0x00, 0x00, 0xe8, 0x39, 0x00, 0x00, 0xc4, 0x39, 0x00, 0x00,
  0xb4, 0x35, 0x00, 0x00, 0x14, 0x34, 0x00, 0x00, 0x04, 0x02, 0x00, 0x00,
  0xec, 0x01, 0x00, 0x00, 0x14, 0x01, 0x00, 0x00, 0x00, 0x01, 0x00, 0x00,
  0xe8, 0x00, 0x00, 0x00, 0xd4, 0x00, 0x00, 0x00, 0xcc, 0x00, 0x00, 0x00,
  0xc4, 0x00, 0x00, 0x00, 0xbc, 0x00, 0x00, 0x00, 0xb4, 0x00, 0x00, 0x00,
  0xac, 0x00, 0x00, 0x00, 0xa4, 0x00, 0x00, 0x00, 0x9c, 0x00, 0x00, 0x00,
  0x94, 0x00, 0x00, 0x00, 0x74, 0x00, 0x00, 0x00, 0x04, 0x00, 0x00, 0x00,
  0x6e, 0xc6, 0xff, 0xff, 0x04, 0x00, 0x00, 0x00, 0x60, 0x00, 0x00, 0x00,
  0x10, 0x00, 0x00, 0x00, 0x00, 0x00, 0x00, 0x00, 0x08, 0x00, 0x0e, 0x00,
  0x08, 0x00, 0x04, 0x00, 0x08, 0x00, 0x00, 0x00, 0x10, 0x00, 0x00, 0x00,
  0x24, 0x00, 0x00, 0x00, 0x00, 0x00, 0x06, 0x00, 0x08, 0x00, 0x04, 0x00,
  0x06, 0x00, 0x00, 0x00, 0x04, 0x00, 0x00, 0x00, 0x00, 0x00, 0x00, 0x00,
  0x0c, 0x00, 0x18, 0x00, 0x14, 0x00, 0x10, 0x00, 0x0c, 0x00, 0x04, 0x00,
  0x0c, 0x00, 0x00, 0x00, 0xe2, 0x85, 0x83, 0x16, 0xca, 0x14, 0x50, 0x63,
  0x02, 0x00, 0x00, 0x00, 0x02, 0x00, 0x00, 0x00, 0x04, 0x00, 0x00, 0x00,
  0x06, 0x00, 0x00, 0x00, 0x32, 0x2e, 0x31, 0x38, 0x2e, 0x30, 0x00, 0x00,
  0xda, 0xc6, 0xff, 0xff, 0x04, 0x00, 0x00, 0x00, 0x10, 0x00, 0x00, 0x00,
  0x31, 0x2e, 0x31, 0x30, 0x2e, 0x30, 0x00, 0x00, 0x00, 0x00, 0x00, 0x00,
  0x00, 0x00, 0x00, 0x00, 0xd8, 0xbb, 0xff, 0xff, 0xdc, 0xbb, 0xff, 0xff,
  0xe0, 0xbb, 0xff, 0xff, 0xe4, 0xbb, 0xff, 0xff, 0xe8, 0xbb, 0xff, 0xff,
  0xec, 0xbb, 0xff, 0xff, 0xf0, 0xbb, 0xff, 0xff, 0xf4, 0xbb, 0xff, 0xff,
  0x16, 0xc7, 0xff, 0xff, 0x04, 0x00, 0x00, 0x00, 0x04, 0x00, 0x00, 0x00,
  0xfd, 0xff, 0xff, 0xff, 0x26, 0xc7, 0xff, 0xff, 0x04, 0x00, 0x00, 0x00,
  0x08, 0x00, 0x00, 0x00, 0xff, 0xff, 0xff, 0xff, 0x40, 0x00, 0x00, 0x00,
  0x3a, 0xc7, 0xff, 0xff, 0x04, 0x00, 0x00, 0x00, 0x04, 0x00, 0x00, 0x00,
  0x01, 0x00, 0x00, 0x00, 0x4a, 0xc7, 0xff, 0xff, 0x04, 0x00, 0x00, 0x00,
  0xc8, 0x00, 0x00, 0x00, 0x00, 0x00, 0x00, 0x00, 0x00, 0x00, 0x00, 0x00,
  0x33, 0x9d, 0xc7, 0x3c, 0x9f, 0x03, 0x5d, 0x3c, 0xee, 0xd0, 0x0b, 0xbb,
  0x01, 0x56, 0x60, 0xbc, 0x6f, 0x57, 0x86, 0xbb, 0x86, 0x56, 0x8e, 0xba,
  0x00, 0x00, 0x00, 0x00, 0x52, 0xb2, 0xa4, 0xbc, 0x03, 0xff, 0xd4, 0xbb,
  0x00, 0x00, 0x00, 0x00, 0x00, 0x00, 0x00, 0x00, 0x5a, 0x85, 0xf1, 0xbc,
  0x06, 0x17, 0x97, 0xbb, 0x00, 0x00, 0x00, 0x00, 0x48, 0x49, 0xe2, 0xbc,
  0x07, 0x0d, 0x8b, 0xbc, 0x00, 0x00, 0x00, 0x00, 0xf3, 0x8e, 0x1f, 0x3c,
  0x00, 0x00, 0x00, 0x00, 0x00, 0x00, 0x00, 0x00, 0x0e, 0xf6, 0xdd, 0xbc,
  0x31, 0x90, 0xfe, 0xbc, 0x04, 0x1f, 0x27, 0x3c, 0x00, 0x00, 0x00, 0x00,
  0x9f, 0x98, 0x42, 0x3d, 0xbb, 0xd1, 0xd0, 0xbc, 0x00, 0x00, 0x00, 0x00,
  0xa3, 0x22, 0xc4, 0xbc, 0x00, 0xb7, 0x82, 0x3b, 0xb7, 0x2d, 0x92, 0x3c,
  0x00, 0x00, 0x00, 0x00, 0xe4, 0xd3, 0xa2, 0xbc, 0x00, 0x00, 0x00, 0x00,
  0x00, 0x00, 0x00, 0x00, 0xa8, 0xce, 0x22, 0xbc, 0xb9, 0x6d, 0x21, 0x3c,
  0x00, 0x00, 0x00, 0x00, 0xa1, 0xad, 0x8b, 0xbc, 0xa3, 0x72, 0x52, 0xbc,
  0xd8, 0xaf, 0x02, 0xbd, 0x00, 0x00, 0x00, 0x00, 0x00, 0x00, 0x00, 0x00,
  0x52, 0x06, 0x08, 0x3c, 0xe5, 0xfd, 0x07, 0xbc, 0x30, 0xa4, 0x28, 0xbc,
  0x02, 0x0e, 0x02, 0xbd, 0x00, 0x00, 0x00, 0x00, 0x00, 0x00, 0x00, 0x00,
  0x1e, 0xc8, 0xff, 0xff, 0x04, 0x00, 0x00, 0x00, 0x08, 0x00, 0x00, 0x00,
  0xee, 0x0d, 0x4b, 0x3c, 0x55, 0xe7, 0x45, 0x3d, 0x32, 0xc8, 0xff, 0xff,
  0x04, 0x00, 0x00, 0x00, 0x00, 0x32, 0x00, 0x00, 0xec, 0xed, 0x6d, 0x3d,
  0xc4, 0xbc, 0x46, 0xbe, 0x06, 0xac, 0x80, 0x3d, 0xd7, 0xab, 0x4d, 0x3e,
  0xe0, 0xc9, 0x35, 0x3c, 0x2e, 0xd8, 0xb6, 0xbd, 0xf0, 0xf9, 0xe1, 0xbc,
  0x80, 0x7d, 0xe6, 0xba, 0x57, 0x46, 0x60, 0xbe, 0xcb, 0x8b, 0x01, 0xbe,
  0x76, 0x29, 0xd8, 0x3d, 0x87, 0xf5, 0x60, 0x3e, 0xd8, 0xa4, 0x91, 0xbd,
  0x40, 0x0c, 0x90, 0xbb, 0xe0, 0x38, 0xb3, 0xbb, 0xf3, 0x81, 0x22, 0x3e,
  0xaf, 0x4e, 0x62, 0x3e, 0x18, 0x91, 0xa4, 0x3c, 0xd3, 0xc4, 0x1b, 0x3e,
  0xb0, 0x68, 0xaf, 0xbd, 0xc0, 0x93, 0x04, 0xbb, 0x1d, 0x4a, 0x5f, 0xbe,
  0x84, 0xa4, 0xc7, 0xbd, 0xea, 0x37, 0xa3, 0x3d, 0x30, 0xa7, 0x76, 0xbd,
  0xa8, 0x19, 0x75, 0xbd, 0x8c, 0x07, 0x61, 0x3d, 0x1d, 0x5d, 0x1d, 0x3e,
  0xa4, 0x8a, 0x6c, 0x3d, 0x33, 0x4e, 0x47, 0x3e, 0x0e, 0xf2, 0xcc, 0x3d,
  0x2c, 0xc4, 0x27, 0xbe, 0x86, 0x23, 0xd4, 0x3d, 0x54, 0x2b, 0x7b, 0x3d,
  0x0b, 0x16, 0x52, 0x3e, 0x78, 0xef, 0x33, 0xbd, 0x9c, 0x62, 0x0e, 0x3d,
  0xae, 0x66, 0x82, 0x3d, 0xb4, 0x28, 0x2e, 0xbd, 0x00, 0x44, 0x49, 0xbb,
  0x2e, 0xc1, 0x5d, 0xbe, 0xf5, 0x12, 0x67, 0x3e, 0xa0, 0x7d, 0xb1, 0x3b,
  0x50, 0x87, 0x8a, 0x3c, 0x20, 0x47, 0xe7, 0x3b, 0x20, 0x7d, 0xc1, 0x3b,
  0xbe, 0xa8, 0x40, 0xbe, 0x3a, 0x6d, 0xaf, 0x3d, 0x61, 0xec, 0x26, 0x3e,
  0xac, 0xf6, 0x05, 0xbd, 0x16, 0x42, 0x5b, 0xbe, 0xf9, 0xd6, 0x4d, 0xbe,
  0x0e, 0xbb, 0x25, 0xbe, 0x48, 0x18, 0x13, 0xbe, 0x04, 0xb4, 0x5f, 0x3d,
  0x9b, 0xed, 0x45, 0xbe, 0x6f, 0xc9, 0x62, 0x3e, 0xa0, 0xbc, 0x05, 0xbd,
  0x27, 0xf2, 0xeb, 0xbd, 0x3a, 0xd8, 0x42, 0xbe, 0x9b, 0x36, 0x43, 0x3e,
  0xf5, 0xf1, 0x49, 0x3e, 0x00, 0x3b, 0x10, 0x3b, 0x14, 0x68, 0x3c, 0xbe,
  0x1a, 0x1c, 0xa1, 0xbd, 0xd9, 0xeb, 0x38, 0x3e, 0x89, 0x93, 0x15, 0xbe,
  0x26, 0x21, 0xf6, 0x3d, 0x64, 0xf1, 0x55, 0xbd, 0xc1, 0xd4, 0xf1, 0xbd,
  0x76, 0x19, 0xa7, 0x3d, 0x9c, 0x44, 0x4a, 0x3d, 0x16, 0x1f, 0xc2, 0xbd,
  0x14, 0x7e, 0x08, 0xbd, 0x92, 0xa9, 0x1c, 0xbe, 0x97, 0x55, 0x52, 0x3e,
  0xcc, 0x69, 0x3b, 0xbe, 0xb0, 0xa5, 0x81, 0xbc, 0xcb, 0xe0, 0x64, 0xbe,
  0x24, 0x01, 0x63, 0xbe, 0x94, 0xd3, 0x51, 0x3d, 0xe3, 0xfe, 0x42, 0x3e,
  0x2c, 0xa2, 0x3c, 0x3d, 0xfb, 0x5b, 0xdb, 0xbd, 0xec, 0x76, 0x75, 0xbd,
  0x44, 0x8d, 0xe8, 0xbd, 0x4a, 0x54, 0x28, 0xbe, 0x34, 0x87, 0x27, 0xbd,
  0xe0, 0xde, 0x8b, 0xbc, 0x13, 0x77, 0x4e, 0xbe, 0x43, 0x2d, 0x22, 0x3e,
  0x1c, 0xdc, 0x6e, 0x3d, 0x9a, 0x37, 0x36, 0xbe, 0xdf, 0x00, 0x25, 0x3e,
  0x1d, 0xef, 0x2a, 0xbe, 0x9f, 0x02, 0x22, 0x3e, 0x4b, 0x8d, 0xeb, 0xbd,
  0x44, 0x6c, 0x57, 0xbd, 0x24, 0xdc, 0x52, 0xbd, 0xca, 0xbf, 0x47, 0xbe,
  0x73, 0xfc, 0x52, 0xbe, 0xce, 0x2f, 0x1b, 0xbe, 0x04, 0xac, 0x18, 0xbd,
  0x96, 0xc1, 0xf6, 0x3d, 0xd0, 0xff, 0x20, 0xbe, 0x68, 0x46, 0x1a, 0xbe,
  0xd6, 0x10, 0xbc, 0x3d, 0x70, 0x95, 0x68, 0x3c, 0x3f, 0x4e, 0x09, 0xbe,
  0xb0, 0xfe, 0x42, 0xbd, 0x60, 0xd7, 0x5c, 0x3c, 0xa4, 0x44, 0x28, 0xbd,
  0xad, 0x12, 0x5f, 0x3e, 0x68, 0x9a, 0xb5, 0xbc, 0x87, 0x9a, 0xd9, 0xbd,
  0xf3, 0x8a, 0x64, 0x3e, 0x12, 0xe0, 0xd6, 0xbd, 0x70, 0x7e, 0x3d, 0xbc,
  0xb4, 0x13, 0x07, 0xbe, 0x4d, 0x4b, 0x3a, 0x3e, 0x3c, 0x0e, 0x94, 0xbd,
  0x3c, 0x9d, 0x1b, 0xbd, 0x4c, 0x7f, 0x23, 0xbe, 0x33, 0xd3, 0x65, 0xbe,
  0xc9, 0xa8, 0x3b, 0x3e, 0x3c, 0x7d, 0x55, 0xbe, 0x91, 0x5a, 0x2c, 0xbe,
  0x50, 0x3d, 0xa2, 0x3c, 0xa0, 0xd7, 0x68, 0xbe, 0xb8, 0xa0, 0x35, 0xbe,
  0x6a, 0x8d, 0x03, 0x3c, 0xce, 0x52, 0x84, 0x3d, 0x3d, 0xfc, 0x01, 0x3e,
  0x0b, 0x3a, 0x2a, 0x3e, 0x51, 0x71, 0x5c, 0xbd, 0x06, 0xc8, 0xc4, 0x3d,
  0xa4, 0x8e, 0x43, 0xbe, 0x88, 0xaa, 0xde, 0xb8, 0x11, 0x96, 0x14, 0x3b,
  0x06, 0xe2, 0x15, 0x3e, 0xf9, 0x88, 0x60, 0x3e, 0x57, 0x78, 0x72, 0x3d,
  0x30, 0xd9, 0x9e, 0x3e, 0xab, 0x49, 0xc4, 0xbc, 0xd7, 0xa1, 0xc4, 0x3d,
  0xa0, 0xf8, 0x0f, 0xbe, 0x92, 0x33, 0xe8, 0x3e, 0xce, 0xa2, 0x83, 0x3e,
  0xee, 0x57, 0x41, 0xbe, 0xdb, 0x75, 0x30, 0xbe, 0x20, 0xf9, 0x1c, 0xbc,
  0xad, 0x99, 0x9e, 0x3e, 0x12, 0x36, 0x8d, 0xbd, 0xa8, 0xd3, 0xd5, 0x3c,
  0x66, 0xcf, 0x9f, 0x3d, 0x11, 0x1b, 0x45, 0x3c, 0x1d, 0xfa, 0x1f, 0xbd,
  0x0e, 0xd8, 0x8c, 0x3e, 0x78, 0xa8, 0x8a, 0xbc, 0xea, 0x49, 0x0d, 0xbe,
  0xa8, 0x37, 0xb1, 0x3c, 0x1a, 0xdd, 0x05, 0xbe, 0xe1, 0x0f, 0x2e, 0x3e,
  0xbe, 0x62, 0x05, 0xbe, 0x96, 0x6d, 0x76, 0x3e, 0x12, 0x50, 0x68, 0xbe,
  0xc7, 0x48, 0x26, 0xbe, 0x90, 0xab, 0x05, 0x3e, 0xd1, 0xd0, 0x4b, 0x3e,
  0xec, 0x18, 0x15, 0xbd, 0xd1, 0x6a, 0x66, 0x3e, 0xb4, 0x34, 0x25, 0xbe,
  0x07, 0x69, 0x4a, 0x3d, 0x91, 0x69, 0x3c, 0xbe, 0xe3, 0x02, 0x04, 0x3e,
  0x74, 0x95, 0x28, 0xbd, 0xa5, 0x09, 0xd0, 0x3c, 0xf4, 0xf5, 0x05, 0xbe,
  0x5c, 0xc4, 0x8a, 0xbd, 0xa9, 0x15, 0x13, 0x3e, 0x60, 0x92, 0x5c, 0x3e,
  0xfb, 0x74, 0x42, 0xbe, 0x59, 0x24, 0x0c, 0x3e, 0x67, 0x78, 0x8f, 0x3d,
  0x3e, 0x06, 0xd2, 0x3d, 0x52, 0xf5, 0xca, 0x3c, 0xce, 0x9a, 0x49, 0x3e,
  0x08, 0x7b, 0xa2, 0x3c, 0xf8, 0x6e, 0xd2, 0xbd, 0x65, 0x60, 0x4b, 0x3e,
  0x40, 0x9c, 0x00, 0xbd, 0x8d, 0xe4, 0x28, 0x3e, 0x0d, 0x51, 0x3b, 0xbe,
  0xe8, 0x0b, 0x8b, 0x3c, 0x1d, 0x42, 0xba, 0xbd, 0x17, 0xbe, 0x2e, 0x3e,
  0xbe, 0xe8, 0xf0, 0x3d, 0x6a, 0x0d, 0x17, 0x3e, 0x61, 0x5f, 0x25, 0xbd,
  0x10, 0xb5, 0x58, 0x3c, 0x89, 0x68, 0x2c, 0x3e, 0xa2, 0x5e, 0x61, 0x3e,
  0x96, 0xf7, 0x52, 0xbe, 0x03, 0x45, 0x27, 0x3e, 0x78, 0xd2, 0xc0, 0xbd,
  0xc1, 0xc5, 0x4e, 0x3e, 0xef, 0xa1, 0x83, 0x3e, 0x84, 0x44, 0x10, 0xbe,
  0x00, 0x26, 0x2d, 0xbd, 0x07, 0xb6, 0x83, 0x3d, 0x11, 0x48, 0xfc, 0x3c,
  0xcf, 0x34, 0xb3, 0xbd, 0x50, 0x3e, 0xde, 0xbc, 0x2e, 0xb3, 0x8b, 0x3e,
  0xc1, 0x21, 0x18, 0x3e, 0x00, 0x89, 0x09, 0x3d, 0x1f, 0x01, 0x42, 0xbe,
  0x30, 0xd8, 0x1a, 0xbe, 0x08, 0x79, 0xcd, 0x3c, 0x73, 0x3d, 0x2d, 0xbe,
  0xca, 0x58, 0xbc, 0xbd, 0xe3, 0xae, 0x96, 0x3d, 0xfc, 0x66, 0x19, 0xbe,
  0x59, 0x6b, 0x38, 0xbe, 0x5a, 0x09, 0xed, 0x3d, 0x08, 0x60, 0x75, 0xbd,
  0x17, 0x1d, 0x48, 0x3e, 0xa3, 0xb9, 0x25, 0xbe, 0x2a, 0xbd, 0x6f, 0x3c,
  0xce, 0x3b, 0xb5, 0xbd, 0xad, 0x89, 0x5a, 0x3e, 0x45, 0xec, 0x93, 0xbd,
  0xfa, 0xa0, 0x5e, 0x3e, 0x78, 0x2a, 0x0b, 0xbe, 0x43, 0x61, 0x58, 0x3e,
  0xfd, 0xd3, 0x55, 0xbb, 0x91, 0x4a, 0x49, 0x3e, 0x07, 0x21, 0xd3, 0x3c,
  0x9c, 0x94, 0x40, 0xbe, 0xc3, 0x63, 0x12, 0x3e, 0xda, 0xf8, 0xdb, 0x3d,
  0xf3, 0xfc, 0x07, 0x3e, 0x6a, 0xea, 0x80, 0x3d, 0x4b, 0x08, 0x3f, 0xbe,
  0x2a, 0x65, 0x65, 0x3e, 0xf8, 0xa4, 0x48, 0x3d, 0xa7, 0x0c, 0x7f, 0x3e,
  0x98, 0x18, 0xbb, 0x3b, 0x5f, 0x67, 0x3f, 0x3e, 0x73, 0x5f, 0xa4, 0x3c,
  0xc1, 0x4b, 0x41, 0x3e, 0x66, 0xbe, 0x0e, 0xbe, 0x6e, 0x4e, 0xc4, 0x3d,
  0x7a, 0x0e, 0x16, 0xbe, 0x40, 0x75, 0x62, 0x3b, 0x38, 0x7d, 0x9f, 0xbc,
  0x68, 0x56, 0xbe, 0x3c, 0xd6, 0x6e, 0x9f, 0x3d, 0x94, 0x8d, 0xc8, 0xbe,
  0x7b, 0x8a, 0x47, 0x3e, 0x11, 0x7f, 0x08, 0x3e, 0xd8, 0xd8, 0xfd, 0x3d,
  0x6c, 0xfc, 0x1b, 0x3d, 0xb0, 0x6a, 0x04, 0xbc, 0xe1, 0xc1, 0x50, 0xbe,
  0x95, 0x49, 0x60, 0x3d, 0xa8, 0x49, 0x82, 0xbc, 0x9c, 0x0a, 0x80, 0x3e,
  0x7a, 0x28, 0x94, 0x3d, 0x9c, 0x66, 0x27, 0x3d, 0x65, 0x9c, 0x30, 0xba,
  0x41, 0x00, 0x49, 0x3e, 0x87, 0x2f, 0x04, 0xbd, 0x0f, 0xae, 0x83, 0x3e,
  0xf4, 0x21, 0x29, 0xbe, 0x39, 0xd8, 0x63, 0x3d, 0xc0, 0xb2, 0x14, 0xbc,
  0x1f, 0xd0, 0x02, 0x3e, 0x80, 0xa1, 0x55, 0xbe, 0xcd, 0x74, 0x13, 0xbd,
  0x40, 0xba, 0x23, 0xbb, 0x44, 0x11, 0x2f, 0xbe, 0x92, 0x98, 0x63, 0xbe,
  0x48, 0xf8, 0x39, 0x3e, 0x95, 0x4f, 0xe3, 0xba, 0xb8, 0xc6, 0xec, 0x3d,
  0x59, 0xc0, 0x4b, 0x3e, 0x02, 0x84, 0x2a, 0xbe, 0xa0, 0xdf, 0xd8, 0xbc,
  0xaf, 0x52, 0x02, 0x3e, 0xd3, 0x95, 0x5d, 0x3e, 0xea, 0x9c, 0x7a, 0x3e,
  0x4a, 0x5e, 0xee, 0x3d, 0xf7, 0xb5, 0x6d, 0x3d, 0xf0, 0xb9, 0x7b, 0xbc,
  0xd1, 0xfc, 0x1b, 0xbe, 0x1e, 0x5c, 0xea, 0x3d, 0xe2, 0x5c, 0xa5, 0x3d,
  0x68, 0xa0, 0x57, 0xbd, 0x9c, 0xea, 0x32, 0xbe, 0x38, 0x1e, 0x67, 0x3d,
  0x83, 0xc2, 0x1e, 0x3c, 0xd2, 0xd0, 0xa5, 0xbd, 0xd6, 0xa0, 0xda, 0x3d,
  0x42, 0x2e, 0xf2, 0x3d, 0xb0, 0x82, 0x7c, 0x3c, 0xcd, 0x90, 0xa2, 0x3d,
  0xe3, 0xba, 0x5e, 0x3e, 0xd0, 0x40, 0x67, 0x3e, 0xe7, 0xae, 0x86, 0x3e,
  0xa4, 0xab, 0x10, 0x3e, 0x5a, 0x7d, 0x63, 0x3e, 0x7c, 0xc0, 0x68, 0x3d,
  0x43, 0x1f, 0x6b, 0xbd, 0xf5, 0xbd, 0x5e, 0x3e, 0x8e, 0xde, 0x64, 0xbe,
  0xae, 0x5e, 0x17, 0xbe, 0xaa, 0xd7, 0x0e, 0xbe, 0xfc, 0x4a, 0x35, 0x3d,
  0xb5, 0x33, 0x40, 0x3e, 0xca, 0x03, 0xbe, 0x3d, 0x48, 0xf9, 0xbe, 0xbc,
  0x92, 0xca, 0x87, 0xbd, 0xad, 0xe0, 0x05, 0x3e, 0x58, 0xef, 0x8a, 0xbc,
  0x8f, 0x79, 0x1f, 0xbe, 0x38, 0x51, 0xc7, 0xbd, 0x5a, 0x83, 0xe8, 0x3d,
  0x1d, 0x26, 0x53, 0x3e, 0xc8, 0xbe, 0xdb, 0x3c, 0x88, 0xad, 0x40, 0x3e,
  0xa6, 0x00, 0xb1, 0x3d, 0xb2, 0x16, 0xb1, 0xbd, 0x25, 0xb2, 0x30, 0x3a,
  0x4c, 0x52, 0x3a, 0xbe, 0x55, 0x6a, 0xdc, 0x3b, 0xa6, 0xde, 0x39, 0x3e,
  0x50, 0x1a, 0x25, 0xbe, 0x99, 0x3d, 0x14, 0x39, 0xb0, 0xf5, 0xa2, 0x3d,
  0x36, 0x14, 0xee, 0x3d, 0xd9, 0x0c, 0x0a, 0xbe, 0x60, 0x9e, 0x85, 0xbd,
  0xd9, 0xd4, 0x06, 0x3e, 0x22, 0x28, 0x90, 0x3d, 0x63, 0xa1, 0x18, 0x3e,
  0x5e, 0xdf, 0xc0, 0xbd, 0x9b, 0xb0, 0xa9, 0x3d, 0x06, 0x96, 0x06, 0xbe,
  0x4f, 0x72, 0x4a, 0x3e, 0x0e, 0xd8, 0xa3, 0x3d, 0xae, 0xa9, 0x46, 0xbe,
  0x70, 0x2a, 0x65, 0xbc, 0x76, 0xec, 0xd1, 0xbd, 0x08, 0xd9, 0xad, 0xbc,
  0xfd, 0xca, 0x90, 0x3d, 0x98, 0x8e, 0x41, 0x3e, 0xc8, 0xba, 0xd0, 0x3c,
  0x31, 0x5f, 0x0c, 0x3e, 0x2b, 0xfd, 0xd6, 0x3a, 0x6a, 0xcf, 0x0d, 0x3e,
  0x44, 0x3c, 0x3a, 0xbd, 0xcb, 0xca, 0x03, 0x3e, 0xb6, 0x57, 0x5b, 0x3e,
  0x0d, 0x86, 0x4c, 0x3e, 0x83, 0xd2, 0x8d, 0xbd, 0xe0, 0x22, 0x92, 0x3b,
  0xe4, 0x84, 0x4d, 0xbd, 0x2a, 0x11, 0x79, 0x3c, 0x31, 0x68, 0x4d, 0x3e,
  0x80, 0x1b, 0xf1, 0x3d, 0xe0, 0xb5, 0xeb, 0x3b, 0xfd, 0x17, 0x4a, 0xbd,
  0x1f, 0xdc, 0x4b, 0x3d, 0x86, 0x64, 0x4d, 0x3d, 0x44, 0x20, 0x3e, 0xbe,
  0xc3, 0x69, 0x06, 0x3e, 0xda, 0x5d, 0x61, 0xbd, 0x4c, 0xa3, 0x71, 0xbe,
  0x42, 0x5e, 0x22, 0xbe, 0x06, 0x9f, 0xbc, 0xbd, 0x7d, 0x40, 0x4f, 0xbe,
  0x58, 0xbf, 0xf7, 0xbc, 0x1f, 0x26, 0xe0, 0xbd, 0x18, 0xd8, 0x5f, 0xbd,
  0xe0, 0xda, 0x14, 0xbc, 0x6f, 0x65, 0x96, 0xbd, 0x10, 0x22, 0x01, 0xbd,
  0x34, 0xc1, 0x69, 0xbd, 0xaa, 0x79, 0xa3, 0xbd, 0x29, 0x3e, 0x37, 0x3e,
  0x7d, 0x4b, 0xdd, 0xbd, 0x1c, 0x83, 0x76, 0x3d, 0xac, 0x34, 0x6f, 0xbd,
  0xa0, 0x5e, 0x02, 0xbe, 0xec, 0x60, 0x5b, 0x3e, 0x00, 0xab, 0x33, 0xbe,
  0x25, 0x5a, 0xbb, 0x3d, 0x4a, 0x9c, 0x70, 0xbe, 0xe7, 0xd6, 0x32, 0x3e,
  0x48, 0xff, 0x5b, 0xbe, 0x18, 0x27, 0x97, 0x3b, 0xa2, 0x50, 0x1c, 0xbf,
  0x7b, 0x79, 0x77, 0x3e, 0x1e, 0xeb, 0x38, 0xbe, 0xa1, 0xad, 0x3c, 0xbe,
  0x3e, 0xf4, 0x2f, 0xbe, 0x8f, 0xa9, 0xbe, 0x3d, 0xfe, 0x24, 0x5d, 0xbe,
  0x14, 0x07, 0x25, 0x3d, 0x0d, 0xd5, 0xe1, 0xbd, 0xa4, 0x0c, 0x00, 0xbe,
  0xf8, 0x3c, 0x2e, 0x3e, 0x31, 0x4c, 0x0d, 0x3e, 0x88, 0x6f, 0x67, 0xbe,
  0xe0, 0xbe, 0x31, 0xbe, 0x8a, 0xa4, 0xdb, 0x3d, 0xe0, 0x5d, 0xb0, 0x3b,
  0x96, 0x40, 0x91, 0x3d, 0x4a, 0x0b, 0x45, 0x3e, 0x15, 0x87, 0x91, 0x3d,
  0x5e, 0x49, 0x44, 0xbe, 0xd8, 0xc4, 0x2c, 0xbe, 0x4a, 0x74, 0x13, 0xbe,
  0xcb, 0xeb, 0x9b, 0x3b, 0xea, 0x1c, 0xbd, 0xbd, 0xf0, 0x30, 0x37, 0xbd,
  0x89, 0xe3, 0x8b, 0x3d, 0xdc, 0x6b, 0x0d, 0x3d, 0x6d, 0x3d, 0x62, 0x3e,
  0xc0, 0x2d, 0x62, 0xbb, 0x16, 0xf2, 0xcc, 0xbd, 0x08, 0x77, 0xe4, 0xbd,
  0x6c, 0xfc, 0x3d, 0x3d, 0x7e, 0xcf, 0xb3, 0xbd, 0x96, 0x15, 0x81, 0xbd,
  0xca, 0xe6, 0x7b, 0x3e, 0x9c, 0xd0, 0x8f, 0x3d, 0x1c, 0x8d, 0xdc, 0xbc,
  0x8f, 0xbc, 0x42, 0x3e, 0xf0, 0x13, 0x3c, 0x3c, 0x3d, 0xdf, 0x00, 0xbe,
  0xb9, 0xe7, 0x8a, 0x3e, 0x9e, 0x68, 0xe3, 0x3d, 0xde, 0x43, 0xf8, 0x3d,
  0x80, 0x75, 0xe9, 0xba, 0xc9, 0x30, 0x50, 0x3e, 0x00, 0x6f, 0xa8, 0xbd,
  0x76, 0xae, 0x02, 0xbe, 0xfb, 0x90, 0x3e, 0x3e, 0x4d, 0x45, 0x38, 0xbe,
  0xf5, 0xde, 0x4e, 0x3e, 0x07, 0x4d, 0xeb, 0xbd, 0xb0, 0x84, 0x8b, 0xbd,
  0x37, 0xce, 0x4f, 0xbe, 0xc4, 0xc0, 0x5b, 0x3d, 0x4e, 0x28, 0xb8, 0xbd,
  0xe4, 0x36, 0x83, 0xbe, 0xf8, 0x17, 0x64, 0x3e, 0xde, 0x48, 0x34, 0x3e,
  0xf4, 0xc6, 0x52, 0xbe, 0x52, 0xad, 0x58, 0xbd, 0xaa, 0x0f, 0xe5, 0xbc,
  0x2a, 0x99, 0x37, 0x3e, 0x98, 0x62, 0x06, 0x3b, 0xad, 0x96, 0x71, 0x3e,
  0x4a, 0xa8, 0x31, 0xbe, 0x5e, 0x28, 0x82, 0x3e, 0x6e, 0x27, 0xc5, 0xbd,
  0x76, 0x21, 0xc0, 0x3d, 0x8d, 0xc2, 0xe7, 0xbd, 0xca, 0x44, 0x81, 0x3e,
  0xed, 0x01, 0x51, 0x3e, 0x80, 0xe0, 0x12, 0xbd, 0x2d, 0x36, 0x43, 0x3e,
  0x2f, 0x0b, 0xde, 0x3c, 0xba, 0xc0, 0xa1, 0xbb, 0x5a, 0xcb, 0x90, 0xbc,
  0x63, 0x7d, 0x37, 0x3e, 0x98, 0x06, 0xf1, 0xbd, 0xe9, 0x04, 0x2d, 0x3e,
  0x86, 0x58, 0x1f, 0xbe, 0xbf, 0x06, 0x28, 0xbe, 0xf2, 0xfe, 0x5b, 0x3e,
  0x19, 0x9f, 0x94, 0xbd, 0xdf, 0xbb, 0xdf, 0xbd, 0xed, 0xd5, 0x20, 0x3e,
  0x8f, 0x42, 0xbe, 0xbc, 0x9f, 0xb6, 0x4b, 0x3e, 0xee, 0x2f, 0x4b, 0xbe,
  0x09, 0xe1, 0x4f, 0x3e, 0x5e, 0x55, 0x2e, 0x3e, 0x35, 0xaf, 0x86, 0x3d,
  0x15, 0xb4, 0x51, 0xbe, 0xd7, 0x30, 0x43, 0xbe, 0xf4, 0xc6, 0x72, 0xbd,
  0x83, 0xf4, 0x34, 0xbe, 0xfa, 0xdb, 0xf8, 0x3d, 0xec, 0x34, 0x98, 0xbc,
  0xc4, 0xb4, 0x17, 0x3d, 0x1e, 0xc4, 0x86, 0x3e, 0xb2, 0x2f, 0x8c, 0x3e,
  0xf0, 0xfa, 0xb9, 0x3d, 0x3d, 0x9e, 0x57, 0xbd, 0xfc, 0x77, 0xf0, 0xbd,
  0x69, 0xed, 0x01, 0x3e, 0x14, 0xb0, 0x8d, 0xbd, 0x0c, 0x76, 0x6e, 0x3d,
  0x30, 0x3e, 0x0c, 0x3c, 0x00, 0x6b, 0x04, 0xbe, 0x11, 0x63, 0x5a, 0x3e,
  0x26, 0x84, 0x07, 0xbe, 0x0f, 0x74, 0x07, 0x3e, 0xc0, 0x35, 0x23, 0xbe,
  0x50, 0xfa, 0x80, 0xbc, 0xc2, 0x68, 0x46, 0xbe, 0x8a, 0x96, 0x45, 0xbe,
  0x61, 0xed, 0x2c, 0x3e, 0x19, 0xf3, 0x44, 0x3e, 0x66, 0x50, 0x2d, 0xbe,
  0xac, 0xe5, 0x9d, 0xbd, 0xe6, 0x43, 0xb3, 0x3d, 0x80, 0x57, 0xbb, 0xbd,
  0x3f, 0x3b, 0x1f, 0xbe, 0x9a, 0x4e, 0xc4, 0x3d, 0x6a, 0x28, 0x8f, 0x3d,
  0xa1, 0xea, 0x3b, 0x3e, 0x38, 0xc4, 0x3a, 0xbe, 0xbf, 0x6c, 0x45, 0x3e,
  0x02, 0x22, 0x23, 0xbe, 0x12, 0x41, 0xc8, 0xbd, 0xf0, 0x44, 0x4d, 0xbd,
  0x25, 0x04, 0x44, 0x3e, 0x23, 0x94, 0x14, 0x3e, 0xd0, 0x17, 0x5e, 0xbd,
  0x32, 0x0c, 0x17, 0xbe, 0xbe, 0xf7, 0xe9, 0x3d, 0x7c, 0x46, 0x5e, 0xbe,
  0x00, 0xc5, 0x4f, 0xbd, 0x3e, 0x66, 0x3d, 0xbe, 0x44, 0x6c, 0x90, 0xbd,
  0xc8, 0x10, 0x56, 0xbe, 0x1b, 0x5b, 0x0f, 0x3e, 0xf2, 0xc8, 0xba, 0xbd,
  0x4b, 0x75, 0x02, 0x3e, 0x4c, 0x35, 0x68, 0x3d, 0x18, 0xce, 0xaf, 0xbc,
  0xf3, 0x96, 0x61, 0xbe, 0xd0, 0xf4, 0x4c, 0xbe, 0xce, 0x91, 0x21, 0xbe,
  0x4a, 0x06, 0xb8, 0xbd, 0x96, 0x8f, 0xc3, 0xbd, 0x97, 0xa2, 0x2e, 0x3e,
  0x35, 0xc0, 0x37, 0x3e, 0x3e, 0xc5, 0xbf, 0x3d, 0x58, 0x2f, 0xcd, 0x3c,
  0x24, 0x95, 0x1f, 0x3d, 0x28, 0xb5, 0x97, 0xbd, 0x00, 0x9e, 0x61, 0xba,
  0x08, 0x53, 0x8b, 0xbc, 0xa8, 0x1f, 0xc1, 0x3c, 0x54, 0x85, 0x64, 0xbe,
  0x6c, 0xc3, 0x62, 0x3d, 0x6f, 0x0a, 0x26, 0x3e, 0x2c, 0x6b, 0xe5, 0xbd,
  0x47, 0x69, 0x14, 0x3e, 0x20, 0x01, 0x8a, 0x3b, 0xb3, 0x5f, 0x46, 0x3e,
  0x8c, 0x2d, 0x1a, 0xbd, 0xa0, 0x71, 0xce, 0xbb, 0x1a, 0x0c, 0x0e, 0xbe,
  0xea, 0xdb, 0x40, 0xbe, 0x16, 0x16, 0x97, 0x3d, 0x6a, 0xf0, 0xba, 0x3d,
  0x67, 0x8f, 0x32, 0x3e, 0x66, 0xf1, 0x14, 0xbe, 0xf7, 0x4c, 0x35, 0x3e,
  0x29, 0xaa, 0x2b, 0x3e, 0x6f, 0x57, 0xbc, 0xbd, 0xa8, 0xec, 0xb3, 0xbd,
  0x15, 0x2a, 0x21, 0xbe, 0x24, 0x91, 0xe0, 0x3d, 0x88, 0x7b, 0xa7, 0xbd,
  0x60, 0xaf, 0x06, 0x3c, 0x72, 0xba, 0xd8, 0xbd, 0xf7, 0x6f, 0x11, 0x3e,
  0xdf, 0xd9, 0x4c, 0x3e, 0xb9, 0x7d, 0x20, 0xbc, 0xfd, 0x38, 0x3d, 0x3e,
  0x4c, 0xd7, 0x87, 0xbd, 0xd3, 0xa5, 0x3f, 0x3e, 0x91, 0xd0, 0xeb, 0x3c,
  0x73, 0x20, 0x1d, 0xbc, 0xb5, 0x36, 0x6e, 0xbe, 0xf3, 0x4f, 0xcb, 0xbd,
  0x2a, 0x2e, 0x1a, 0xbe, 0xc7, 0xa6, 0x4c, 0x3e, 0x8e, 0x31, 0x1e, 0xbe,
  0x10, 0xb2, 0x11, 0xbe, 0x85, 0xeb, 0x15, 0xbd, 0x34, 0x83, 0x96, 0xbd,
  0xb8, 0xa5, 0xf4, 0x3c, 0x4c, 0x82, 0x2e, 0x3d, 0xf0, 0x61, 0x8a, 0xbc,
  0x49, 0x6e, 0xf7, 0xbd, 0x89, 0x18, 0x91, 0x3d, 0x7a, 0x47, 0xb8, 0x3d,
  0x88, 0x4d, 0x45, 0xbe, 0x58, 0xdf, 0xe5, 0xbd, 0x78, 0xb3, 0x16, 0xbd,
  0x80, 0x00, 0xb3, 0xbd, 0xc0, 0x09, 0x47, 0xbb, 0x2a, 0xe4, 0x11, 0x3e,
  0x06, 0x36, 0xdf, 0xbc, 0x72, 0x82, 0x26, 0xbe, 0x65, 0x29, 0x82, 0x3c,
  0x9f, 0x3f, 0x00, 0xbe, 0xca, 0x56, 0x95, 0x3d, 0x54, 0xe1, 0x38, 0x3d,
  0x09, 0x7a, 0x48, 0x3e, 0x35, 0xf2, 0x23, 0x3e, 0xd2, 0xd6, 0x31, 0xbc,
  0xb3, 0x4f, 0x03, 0xbe, 0x24, 0x9c, 0x2b, 0xbd, 0x46, 0xc0, 0x3b, 0xbe,
  0x3d, 0x0e, 0x32, 0x3e, 0x0d, 0x6b, 0x23, 0xbe, 0x1e, 0xe0, 0x13, 0xbe,
  0x9c, 0x5f, 0x5e, 0xbe, 0x93, 0x69, 0x44, 0xbc, 0x03, 0x3c, 0x42, 0x3e,
  0x19, 0xcf, 0xdd, 0xbc, 0x58, 0x12, 0x1b, 0xbe, 0xed, 0x62, 0x0e, 0xbe,
  0x4b, 0xca, 0x05, 0x3e, 0x8f, 0x4d, 0xd7, 0xbd, 0x88, 0x45, 0x67, 0xbe,
  0xa0, 0xab, 0xd4, 0xbd, 0x63, 0x0f, 0x22, 0x3e, 0xf6, 0x00, 0xd8, 0x3d,
  0x00, 0xdb, 0xdc, 0xbb, 0xf6, 0x77, 0x9f, 0x3d, 0x56, 0x75, 0x9a, 0xbe,
  0x39, 0x61, 0x53, 0x3e, 0x05, 0x5b, 0xf2, 0xbd, 0x8a, 0xcc, 0xba, 0x3d,
  0x11, 0x97, 0x63, 0x3e, 0x40, 0xa1, 0x7d, 0xbc, 0x2f, 0x84, 0x26, 0x3e,
  0x97, 0x3b, 0x38, 0xbd, 0xfc, 0xb5, 0xb9, 0xbd, 0x55, 0x0f, 0x51, 0x3e,
  0x5c, 0x19, 0x58, 0x3d, 0x61, 0xec, 0x86, 0x3e, 0xfa, 0x0a, 0x0f, 0xbe,
  0x7c, 0xbc, 0x56, 0x3e, 0x8d, 0xaf, 0x1c, 0x3e, 0x62, 0x51, 0xf4, 0x3d,
  0xa1, 0xbf, 0x98, 0xbe, 0x27, 0x11, 0x0e, 0xbe, 0x48, 0xc2, 0xcb, 0xbd,
  0x85, 0x7b, 0x01, 0x3e, 0x00, 0xac, 0x4a, 0xbe, 0x7a, 0x91, 0x05, 0x3d,
  0x98, 0x2e, 0x24, 0xbe, 0x9a, 0x76, 0xcd, 0x3d, 0x44, 0x7b, 0x79, 0x3d,
  0x64, 0xc2, 0xf1, 0xbd, 0x99, 0xf1, 0x43, 0x3e, 0xd2, 0x6f, 0xf8, 0x3d,
  0x8b, 0x8f, 0x0e, 0x3e, 0xc1, 0x7d, 0x2c, 0x3e, 0x07, 0xbb, 0x29, 0x3e,
  0xcc, 0x52, 0x5b, 0xbd, 0xa0, 0x61, 0x8e, 0xbd, 0x2f, 0x0e, 0xe2, 0x3d,
  0xa3, 0x87, 0xba, 0xbd, 0xca, 0x8c, 0xc7, 0xbe, 0xac, 0xdb, 0xb9, 0xbd,
  0xce, 0x68, 0xd1, 0x3c, 0x8a, 0xd6, 0xdf, 0x3d, 0x1e, 0xed, 0xd4, 0x3d,
  0x6a, 0xaf, 0x99, 0x3d, 0x68, 0xbf, 0xe6, 0x3d, 0x01, 0xaa, 0x57, 0x3e,
  0xa7, 0x6b, 0x2e, 0x3c, 0x6e, 0xbc, 0x2a, 0xbe, 0xd4, 0x29, 0x7b, 0x3d,
  0x48, 0x21, 0x44, 0xbe, 0xb2, 0xdb, 0x9f, 0xbd, 0x3e, 0x91, 0x3e, 0xbd,
  0xdd, 0x30, 0x4a, 0x3e, 0xd0, 0xd0, 0xda, 0x3b, 0xdd, 0xa8, 0x0e, 0x3e,
  0xa0, 0xd5, 0x3d, 0x3e, 0x0b, 0xb9, 0x86, 0x3d, 0xef, 0xcf, 0x4b, 0x3e,
  0x17, 0xc2, 0x4b, 0x3e, 0x30, 0x04, 0xb2, 0x3d, 0x1d, 0x0c, 0x1f, 0x3e,
  0xeb, 0xd2, 0x33, 0x3e, 0x1c, 0x6a, 0x95, 0xbd, 0x70, 0xb3, 0x6f, 0x3c,
  0xe6, 0xa9, 0x44, 0xbe, 0xe0, 0xd7, 0xdc, 0x3b, 0xe3, 0x80, 0x44, 0x3e,
  0xe6, 0xac, 0x02, 0xbe, 0x6a, 0x6d, 0xbf, 0x3d, 0xda, 0xee, 0xc3, 0xbd,
  0xcc, 0x9c, 0x59, 0x3d, 0xde, 0xb2, 0xff, 0x3d, 0xf7, 0x51, 0x65, 0x3e,
  0xf6, 0x3a, 0xe4, 0x3d, 0x44, 0x2f, 0x96, 0xbd, 0x6b, 0x1d, 0x12, 0x3e,
  0x5a, 0x0b, 0xa7, 0xbd, 0xa2, 0xe2, 0x9c, 0x3d, 0x70, 0x92, 0x06, 0xbc,
  0x02, 0x63, 0x32, 0xbe, 0x9e, 0x80, 0xed, 0xbd, 0xf2, 0xb6, 0x93, 0x3d,
  0x97, 0xc1, 0x03, 0x3e, 0xc1, 0xc6, 0x4e, 0xbe, 0x6c, 0xf7, 0xa7, 0xbd,
  0x68, 0xed, 0xa3, 0x3c, 0x25, 0x5a, 0x47, 0xbe, 0xa7, 0xcb, 0xd8, 0xbd,
  0x0e, 0x4f, 0xfb, 0x3d, 0x1d, 0x5b, 0x63, 0xbe, 0xff, 0x85, 0x51, 0x3e,
  0xda, 0x78, 0xbb, 0xbd, 0xf4, 0x73, 0x4c, 0xbe, 0x7a, 0xcd, 0x27, 0xbe,
  0xcd, 0x95, 0x18, 0x3e, 0x83, 0x4e, 0x23, 0x3e, 0x36, 0x4f, 0x51, 0xbe,
  0xa3, 0xbc, 0x4a, 0x3e, 0xc0, 0x5f, 0x02, 0xbd, 0xc1, 0xba, 0x4d, 0x3e,
  0x38, 0x46, 0xd3, 0xbd, 0xe8, 0x09, 0xbb, 0x3c, 0xe5, 0xb8, 0x35, 0x3e,
  0xba, 0x22, 0x9c, 0x3d, 0x44, 0xed, 0x3c, 0xbe, 0x30, 0xba, 0x46, 0xbe,
  0xb8, 0x99, 0xa5, 0x3c, 0x98, 0x47, 0x2f, 0xbd, 0xd8, 0x99, 0xce, 0x3c,
  0x56, 0xa6, 0xb5, 0x3d, 0x87, 0x0f, 0x37, 0x3e, 0xad, 0x37, 0x5c, 0x3e,
  0x7f, 0x00, 0x24, 0x3e, 0xbd, 0x6b, 0x1f, 0x3e, 0x5c, 0x40, 0x24, 0xbe,
  0x5c, 0x2c, 0xc8, 0xbd, 0xce, 0x10, 0xcb, 0xbd, 0xb0, 0x5e, 0x73, 0xbc,
  0x0e, 0x11, 0xa0, 0x3d, 0x28, 0x3d, 0x57, 0xbe, 0xf4, 0xc6, 0x64, 0x3d,
  0xdf, 0x32, 0x30, 0x3e, 0xc8, 0x37, 0x19, 0xbd, 0xbc, 0xcc, 0x5d, 0x3d,
  0xcf, 0x82, 0x34, 0xbe, 0x48, 0xb0, 0xc9, 0x3c, 0x0c, 0xb3, 0x2e, 0x3d,
  0xe2, 0xce, 0x13, 0xbe, 0xcc, 0x8c, 0x0b, 0x3d, 0x5e, 0x2d, 0x22, 0xbe,
  0xa8, 0xbf, 0x9f, 0xbc, 0x6c, 0x1f, 0x06, 0xbe, 0x21, 0x46, 0x47, 0x3e,
  0x50, 0xd0, 0x1d, 0xbe, 0x78, 0x62, 0xd4, 0x3c, 0xc0, 0xd5, 0x60, 0x3b,
  0x6e, 0xbd, 0x8f, 0x3d, 0xc8, 0x2d, 0x39, 0xbd, 0x71, 0x9f, 0x38, 0xbe,
  0x78, 0x25, 0xe0, 0xbc, 0x32, 0x47, 0xde, 0x3d, 0x56, 0x89, 0x9d, 0x3d,
  0x26, 0x39, 0x3c, 0xbe, 0x49, 0xd0, 0x3e, 0x3e, 0x18, 0x88, 0x51, 0xbd,
  0x18, 0xcf, 0x38, 0xbd, 0xf6, 0x56, 0xaf, 0x3d, 0x91, 0x71, 0x6a, 0x3e,
  0x88, 0x83, 0xaf, 0x3c, 0x34, 0x8a, 0x63, 0x3d, 0xe4, 0x4d, 0x18, 0x3d,
  0x02, 0x21, 0x57, 0xbe, 0xd7, 0xfb, 0x49, 0xbe, 0xee, 0x04, 0x0b, 0xbe,
  0x65, 0x36, 0x00, 0xbe, 0x80, 0x20, 0xb7, 0xbd, 0xb3, 0xe7, 0x58, 0x3e,
  0xc3, 0x2c, 0x22, 0xbe, 0x40, 0xf0, 0x8d, 0xbb, 0x18, 0x54, 0x46, 0xbe,
  0xae, 0x0d, 0xe9, 0x3d, 0x94, 0x32, 0x74, 0x3d, 0x92, 0x4d, 0xee, 0xbd,
  0x85, 0xc6, 0x06, 0x3e, 0xd8, 0x9e, 0x43, 0xbe, 0x27, 0xce, 0x3a, 0xbe,
  0x62, 0x25, 0x44, 0xbe, 0x81, 0xb2, 0x66, 0xbe, 0x2e, 0xd9, 0xb7, 0xbd,
  0x54, 0x23, 0x5b, 0xbe, 0xf8, 0xb9, 0x33, 0xbe, 0xd9, 0x59, 0x68, 0xbe,
  0xe4, 0xb8, 0x63, 0xbd, 0xf5, 0x59, 0x3a, 0x3e, 0x70, 0x42, 0x42, 0xbc,
  0xd1, 0xd8, 0xd5, 0xbd, 0xfe, 0xde, 0x43, 0xbe, 0xb8, 0x0a, 0xca, 0xbd,
  0x94, 0x04, 0x07, 0xbd, 0x4e, 0xfd, 0xea, 0x3d, 0xdd, 0x9a, 0x61, 0xbe,
  0x71, 0xb9, 0xd9, 0xbd, 0x7f, 0xf0, 0x0c, 0x3e, 0x80, 0xad, 0xc2, 0xbd,
  0x8b, 0xc7, 0x52, 0x3e, 0xc4, 0x5a, 0x75, 0x3d, 0x93, 0x73, 0xe5, 0xbd,
  0x16, 0xbb, 0xf4, 0x3d, 0x63, 0x23, 0xed, 0xbd, 0x40, 0x60, 0xf3, 0xbb,
  0x64, 0x65, 0x5b, 0xbd, 0x04, 0x97, 0x0c, 0x3d, 0x88, 0x00, 0x0a, 0xbd,
  0xa0, 0x7a, 0x09, 0xbe, 0x09, 0x23, 0x05, 0x3e, 0x50, 0x12, 0x3c, 0x3e,
  0xc2, 0x1b, 0x33, 0xbe, 0x3e, 0x79, 0xae, 0x3d, 0x05, 0x54, 0xcc, 0x3d,
  0x1b, 0xe5, 0x1f, 0xbe, 0xc0, 0x31, 0x5c, 0x3c, 0x88, 0xbf, 0xf0, 0x3c,
  0xf8, 0x21, 0x23, 0x3c, 0x79, 0x82, 0xdf, 0xbd, 0x4c, 0x9e, 0x22, 0xbd,
  0x58, 0xb8, 0x39, 0xbd, 0x06, 0xeb, 0x6f, 0xbe, 0xa5, 0x31, 0xea, 0xbd,
  0x9d, 0xde, 0x30, 0xbe, 0xbd, 0x9d, 0xe9, 0x3b, 0xba, 0xf4, 0x3d, 0xbd,
  0xa7, 0xbf, 0x0f, 0x3e, 0x74, 0x0e, 0x27, 0x3e, 0x63, 0x53, 0x63, 0xbe,
  0x4d, 0xb1, 0x35, 0xbe, 0x25, 0xb4, 0x60, 0xbe, 0x0e, 0x81, 0xa6, 0xbb,
  0x77, 0xee, 0x1a, 0x3e, 0x74, 0xd1, 0x22, 0x3d, 0xbc, 0xaf, 0xc5, 0xbd,
  0xcd, 0xdd, 0xd2, 0xbd, 0xb7, 0x13, 0x75, 0x3d, 0x80, 0x06, 0xa6, 0x3c,
  0x8c, 0x2f, 0x09, 0xbe, 0xe5, 0xab, 0x17, 0xbe, 0x58, 0x41, 0x2d, 0xbd,
  0x0c, 0xcd, 0x51, 0xbe, 0xea, 0x75, 0x82, 0xbd, 0x70, 0x83, 0x01, 0x3e,
  0x21, 0x07, 0xbc, 0x3d, 0xb9, 0x4a, 0x95, 0x3d, 0xf8, 0xa9, 0xe9, 0x3c,
  0xca, 0xe6, 0xc1, 0xbd, 0x9c, 0xc7, 0x3d, 0xbd, 0x94, 0xfd, 0xb2, 0xbd,
  0x21, 0x68, 0x2f, 0x3e, 0xfa, 0x87, 0x10, 0x3e, 0x51, 0x9d, 0x63, 0xbd,
  0x69, 0xcf, 0x13, 0xbe, 0x88, 0x50, 0x13, 0xbe, 0xaa, 0x66, 0xe3, 0x3d,
  0x11, 0xcd, 0x8f, 0xbc, 0xe9, 0xaf, 0x19, 0x3e, 0x0f, 0xc8, 0x34, 0x3e,
  0x2f, 0x70, 0x45, 0x3e, 0x08, 0xff, 0x09, 0xbe, 0xfe, 0xa6, 0x86, 0xbe,
  0x8c, 0xdd, 0x8d, 0x3d, 0x24, 0xc9, 0xa7, 0x3d, 0xb2, 0x49, 0xa8, 0xbd,
  0xf4, 0x37, 0x43, 0x3b, 0x3f, 0x0f, 0x22, 0x3e, 0x91, 0x0c, 0x3e, 0x3e,
  0x60, 0x1f, 0xb9, 0xbb, 0xc0, 0x6c, 0x7e, 0xbc, 0xc2, 0x3d, 0xd9, 0x3d,
  0xfc, 0x5f, 0x75, 0x3d, 0x06, 0xbb, 0x82, 0xbd, 0x2a, 0x37, 0xd1, 0x3d,
  0xf3, 0x7c, 0x9e, 0xbe, 0xbc, 0x97, 0x69, 0xbe, 0xbb, 0x80, 0x21, 0x3e,
  0x39, 0x18, 0x4d, 0x3c, 0x5d, 0x6d, 0x4b, 0x3d, 0xca, 0xa6, 0xe8, 0x3d,
  0x9a, 0x2a, 0x56, 0xbe, 0xc4, 0xc0, 0xf0, 0xbd, 0xb9, 0xee, 0x8f, 0x3d,
  0x7d, 0x7d, 0x89, 0x3e, 0x4a, 0xa3, 0x54, 0xbe, 0xf7, 0x7a, 0xd9, 0xbd,
  0xbd, 0x38, 0x97, 0xbd, 0x0e, 0x1e, 0x63, 0xbd, 0xe3, 0x7d, 0x4c, 0xbd,
  0x14, 0x30, 0xfa, 0xbd, 0xdd, 0x4d, 0x11, 0xbe, 0x76, 0xb4, 0x84, 0x3e,
  0xfa, 0xc2, 0xc1, 0x3d, 0x4a, 0xce, 0x47, 0x3d, 0x04, 0x0d, 0x01, 0xbd,
  0x0a, 0x2d, 0x8b, 0x3d, 0xfb, 0x79, 0x52, 0x3e, 0x5a, 0x54, 0xb4, 0x3d,
  0xb5, 0xb3, 0x2c, 0x3e, 0x0c, 0xfd, 0x59, 0x3d, 0x42, 0xb7, 0x3a, 0xbd,
  0x68, 0xcb, 0xcb, 0x3d, 0x04, 0x17, 0x44, 0x3d, 0xf1, 0xc5, 0x1d, 0x3e,
  0x36, 0x09, 0x16, 0xbe, 0x66, 0x48, 0x88, 0x3d, 0xfc, 0x71, 0x56, 0xbd,
  0x3c, 0x42, 0x4e, 0x3e, 0x88, 0x1c, 0x45, 0x3c, 0xf9, 0xac, 0xc2, 0xbe,
  0xd3, 0x41, 0x10, 0x3e, 0xdd, 0x28, 0xb5, 0x3d, 0x7d, 0x14, 0x98, 0x3d,
  0x6a, 0xf0, 0xff, 0xbd, 0x72, 0x8d, 0x4c, 0xbe, 0xf9, 0x24, 0x2c, 0x3e,
  0x63, 0x37, 0xeb, 0x3b, 0xc7, 0x24, 0x3a, 0xbe, 0x28, 0x85, 0xed, 0x3c,
  0x6c, 0x44, 0x5b, 0xbe, 0xec, 0x03, 0x3a, 0xbe, 0x58, 0x96, 0xb4, 0x3c,
  0x0b, 0x2d, 0xc3, 0x3d, 0x5c, 0xc3, 0x5e, 0xbd, 0x3a, 0xe0, 0x4e, 0x3e,
  0xca, 0xb3, 0x4d, 0x3e, 0x1b, 0xce, 0xb9, 0xbc, 0x97, 0x3a, 0xa8, 0xbd,
  0xb3, 0x8d, 0x3a, 0x3e, 0x52, 0x6a, 0xc7, 0x3d, 0x67, 0x04, 0x69, 0x3e,
  0x38, 0x35, 0x2a, 0xbd, 0x45, 0xb1, 0x31, 0x3e, 0x30, 0x9e, 0x1b, 0xbe,
  0x78, 0xfb, 0x43, 0xbe, 0xfd, 0x1d, 0x4f, 0x3e, 0xfc, 0x65, 0x68, 0xbd,
  0xb7, 0xee, 0x3b, 0x3e, 0x9a, 0xba, 0xa7, 0x3d, 0x21, 0x5b, 0x3c, 0xbe,
  0x04, 0x73, 0xf9, 0xbd, 0xb4, 0x62, 0x1a, 0xbd, 0xc8, 0x67, 0xc9, 0xbd,
  0x79, 0x8a, 0x18, 0x3e, 0x88, 0x24, 0x1a, 0xbd, 0xc0, 0x44, 0x3b, 0x3c,
  0x17, 0x4e, 0x2f, 0x3e, 0x5f, 0x1c, 0x51, 0x3e, 0x10, 0x02, 0xa0, 0x3c,
  0x55, 0xfa, 0x25, 0x3e, 0x96, 0x4b, 0xb1, 0x3d, 0xe8, 0x1b, 0x06, 0xbe,
  0x08, 0x14, 0x06, 0xbd, 0x38, 0x0d, 0x6b, 0xbd, 0x80, 0xb8, 0x05, 0xbe,
  0xfc, 0x36, 0x71, 0x3d, 0x9c, 0xf3, 0x19, 0x3d, 0x73, 0x52, 0x5a, 0x3e,
  0x2f, 0x0a, 0x52, 0x3e, 0xf8, 0x2f, 0xad, 0x3c, 0x8b, 0x0c, 0x61, 0xbe,
  0x68, 0x84, 0x69, 0xbe, 0xfa, 0x0f, 0xe7, 0xbd, 0x2d, 0xd0, 0x27, 0x3e,
  0x37, 0xa8, 0x34, 0x3e, 0x07, 0x97, 0x4b, 0x3e, 0x6a, 0x81, 0xc5, 0x3d,
  0xba, 0xac, 0xeb, 0x3d, 0xa0, 0x0b, 0x40, 0xbd, 0xf8, 0x87, 0xe0, 0xbd,
  0x2f, 0x26, 0x46, 0x3e, 0x3d, 0x32, 0x38, 0x3e, 0x30, 0xe1, 0xb9, 0xbc,
  0xbb, 0x68, 0x2e, 0x3e, 0xac, 0x3b, 0x82, 0xbd, 0x5c, 0x47, 0x56, 0xbd,
  0x20, 0xa8, 0x48, 0xbd, 0xf4, 0xd3, 0x23, 0x3d, 0x14, 0x23, 0x27, 0xbe,
  0x89, 0x8e, 0x5e, 0x3e, 0xf3, 0xcd, 0x69, 0xbe, 0x90, 0x34, 0xf3, 0xbd,
  0x11, 0xdc, 0x22, 0x3e, 0x27, 0xdf, 0x53, 0x3e, 0xc4, 0xf7, 0xf2, 0xbd,
  0xdc, 0xc0, 0x6d, 0xbd, 0x51, 0x26, 0x57, 0x3e, 0xec, 0xf3, 0x3a, 0x3d,
  0xf6, 0xb9, 0x51, 0xbe, 0xbb, 0x7e, 0x3e, 0xbe, 0xf7, 0x44, 0x10, 0xbe,
  0x04, 0x5e, 0x20, 0x3d, 0x94, 0xa8, 0x56, 0xbd, 0x92, 0x22, 0x8c, 0xbd,
  0xb3, 0x76, 0x52, 0xbe, 0x18, 0x9d, 0x06, 0xbe, 0xdf, 0x2f, 0x10, 0x3e,
  0xfa, 0x0a, 0xac, 0x3d, 0xb0, 0x99, 0x5d, 0xbc, 0x06, 0x95, 0xde, 0x3d,
  0xd4, 0x1a, 0x13, 0x3d, 0x61, 0xf4, 0x24, 0x3e, 0x0e, 0xa0, 0xcc, 0xbe,
  0x0d, 0x9e, 0x4b, 0x3e, 0x0d, 0x10, 0x19, 0x3e, 0xc4, 0x76, 0x2b, 0xbe,
  0x42, 0x2b, 0x32, 0xbe, 0xc8, 0x61, 0x9a, 0xbc, 0x80, 0xaa, 0x7e, 0x3b,
  0xd7, 0x31, 0xf1, 0x3c, 0x65, 0xae, 0xa0, 0xbc, 0x4d, 0xe9, 0xe1, 0xbd,
  0xe5, 0x4b, 0x40, 0x3e, 0xd5, 0x20, 0x0b, 0x3e, 0x8e, 0xfb, 0x37, 0xbd,
  0x18, 0x62, 0x1b, 0x3e, 0xb7, 0x38, 0xc0, 0x3d, 0xfb, 0xd4, 0x35, 0x3e,
  0x3d, 0x43, 0x3f, 0xbf, 0xd8, 0x93, 0x24, 0xbe, 0x44, 0x96, 0x26, 0x3d,
  0x97, 0xf1, 0x31, 0x3e, 0x88, 0x31, 0xbc, 0xbd, 0x87, 0xe3, 0x0b, 0x3d,
  0x71, 0xb0, 0x3a, 0x3e, 0x64, 0x30, 0x5b, 0xbe, 0x04, 0x31, 0x50, 0xbe,
  0xe9, 0xf8, 0x1e, 0xbd, 0x60, 0xc0, 0x23, 0xbe, 0xeb, 0xd6, 0x58, 0x3e,
  0x98, 0xea, 0xac, 0x3c, 0x29, 0xfb, 0x01, 0xbe, 0x2a, 0x6a, 0xee, 0x3d,
  0x78, 0xca, 0xd2, 0xbc, 0xe6, 0x72, 0xa3, 0x3d, 0x77, 0x18, 0x31, 0xbe,
  0x0b, 0xa3, 0x83, 0xbe, 0xcf, 0xef, 0x71, 0xbe, 0x00, 0xb0, 0xef, 0x3b,
  0x4e, 0xa0, 0x0f, 0xbe, 0xb9, 0xc9, 0x58, 0x3d, 0x59, 0xed, 0x1c, 0x3e,
  0x42, 0xc3, 0xf1, 0xbd, 0xd1, 0x57, 0x23, 0xbe, 0x6f, 0x02, 0x3f, 0xbd,
  0x55, 0x7f, 0x0d, 0x3e, 0x3c, 0x46, 0xc3, 0xbd, 0x1e, 0x44, 0x8d, 0x3d,
  0xda, 0x75, 0xcd, 0x3d, 0x48, 0x6d, 0xac, 0x3c, 0xeb, 0x65, 0xef, 0xbd,
  0x1b, 0x89, 0x32, 0xbe, 0xf9, 0xe8, 0x61, 0xbd, 0x7e, 0xa4, 0xc9, 0x3e,
  0x91, 0x5e, 0x82, 0x3e, 0x40, 0x93, 0x99, 0x3c, 0x8c, 0xcb, 0x41, 0x3d,
  0xcf, 0x03, 0x8f, 0x3e, 0x56, 0xc7, 0x41, 0x3e, 0xa4, 0xd1, 0x47, 0xbe,
  0xde, 0x90, 0xf0, 0x3d, 0x7b, 0xbe, 0x63, 0xbe, 0xdb, 0x5a, 0xe6, 0xbd,
  0x7c, 0x2c, 0xba, 0xbd, 0xf0, 0xbb, 0x30, 0xbd, 0x79, 0xf3, 0x1b, 0x3e,
  0x95, 0x09, 0x3c, 0x3e, 0x37, 0xd7, 0x67, 0x3e, 0x16, 0xad, 0x15, 0xbe,
  0xa2, 0x70, 0xef, 0x3d, 0xb0, 0xa9, 0x38, 0xbe, 0xbb, 0x08, 0x0e, 0x3e,
  0x4f, 0xcd, 0x4d, 0x3e, 0xb5, 0x7e, 0x36, 0x3e, 0xae, 0xd5, 0x91, 0x3d,
  0x58, 0xc7, 0xd1, 0xbc, 0x00, 0x81, 0x06, 0x3c, 0x77, 0x75, 0x33, 0xbe,
  0xbb, 0x29, 0x1d, 0x3e, 0xd7, 0xcc, 0xf7, 0xbd, 0xc2, 0x6b, 0x8c, 0x3d,
  0xc9, 0xc4, 0x0c, 0x3d, 0x70, 0x5d, 0x19, 0xbe, 0x33, 0xc6, 0xb9, 0xbc,
  0x6a, 0x0f, 0xf7, 0x3d, 0xc9, 0xdc, 0x8c, 0xbd, 0xbe, 0x44, 0xe2, 0x3d,
  0xaa, 0xff, 0xb8, 0xbd, 0xb0, 0x8c, 0x35, 0xbe, 0x41, 0x74, 0x35, 0xbe,
  0xe1, 0xc5, 0x65, 0xbe, 0x44, 0x6b, 0x27, 0xbe, 0x63, 0x56, 0x16, 0x3c,
  0x59, 0x67, 0x6a, 0xbe, 0x6f, 0xdc, 0x3f, 0x3e, 0xf1, 0xdc, 0x36, 0x3e,
  0xc6, 0x43, 0x96, 0x3d, 0x68, 0x10, 0xb0, 0xbc, 0xec, 0x3b, 0x5b, 0xbd,
  0x63, 0x99, 0x73, 0x3c, 0x4a, 0x25, 0x75, 0xbd, 0x09, 0x47, 0x9a, 0xbd,
  0x0e, 0x2a, 0x8b, 0xbd, 0xa4, 0xa2, 0x84, 0xbd, 0x9e, 0x25, 0x14, 0x3e,
  0x31, 0x42, 0x2d, 0x3e, 0xad, 0x89, 0x0d, 0xbe, 0xc2, 0xc5, 0x1b, 0x3d,
  0x00, 0x6b, 0xf4, 0xbd, 0xaa, 0x71, 0x30, 0x3d, 0x48, 0xb9, 0x0d, 0xbe,
  0x37, 0xd4, 0x18, 0xbe, 0xc1, 0x1c, 0xa0, 0xbc, 0xe0, 0x7d, 0x99, 0x3b,
  0xb4, 0xc3, 0xd9, 0x3d, 0x95, 0xf0, 0x36, 0x3e, 0xb3, 0xb0, 0xd5, 0xbd,
  0xe1, 0x73, 0xbf, 0xbd, 0x4f, 0x64, 0x2d, 0x3e, 0x87, 0x2b, 0xbe, 0x3d,
  0x36, 0x36, 0x12, 0xbe, 0xd6, 0x7b, 0x31, 0x3d, 0xd0, 0xc6, 0x9a, 0x3c,
  0x7c, 0x43, 0x26, 0xbe, 0xe6, 0x5a, 0x26, 0xbe, 0x08, 0x77, 0xe4, 0x3c,
  0x46, 0x61, 0xce, 0x3d, 0xdb, 0xc2, 0x22, 0x3e, 0xf0, 0x4c, 0x4d, 0xbe,
  0x0a, 0x18, 0xe7, 0x3d, 0x4c, 0x87, 0x05, 0x3d, 0x6a, 0x89, 0x00, 0xbe,
  0x50, 0x5f, 0x51, 0xbc, 0xc6, 0x65, 0x47, 0xbe, 0x17, 0xa5, 0x5d, 0x3e,
  0x2b, 0xb5, 0x5b, 0x3e, 0xfd, 0x51, 0xed, 0xbd, 0x7a, 0x7f, 0xbd, 0x3d,
  0x1f, 0x40, 0x0d, 0x3e, 0xe3, 0xd3, 0x4e, 0x3e, 0x29, 0x61, 0x42, 0xbe,
  0x77, 0xc5, 0x60, 0x3e, 0x93, 0xed, 0x57, 0x3e, 0x34, 0x74, 0x54, 0xbe,
  0x3c, 0x0b, 0x11, 0x3d, 0xb2, 0x7c, 0x25, 0xbe, 0xc7, 0xe8, 0x03, 0xbe,
  0x52, 0x37, 0xea, 0xbd, 0xa2, 0x4a, 0xfe, 0xbd, 0xd3, 0x11, 0x32, 0xbe,
  0xc4, 0x1e, 0x77, 0xbd, 0x00, 0xef, 0x90, 0xbb, 0x64, 0x27, 0x69, 0xbe,
  0x34, 0xef, 0x01, 0xbe, 0x81, 0x38, 0x28, 0x3e, 0xe7, 0xf9, 0x61, 0x3e,
  0x74, 0x8a, 0x51, 0x3d, 0xe7, 0x23, 0x20, 0x3e, 0x9b, 0x22, 0x06, 0x3e,
  0x9a, 0x80, 0xaf, 0x3d, 0x91, 0xd2, 0x16, 0x3e, 0x00, 0xeb, 0x9b, 0xbc,
  0xc8, 0x69, 0x02, 0xbd, 0x6c, 0x7f, 0x23, 0x3d, 0x03, 0x07, 0x08, 0x3e,
  0xda, 0xa4, 0xda, 0x3d, 0xf2, 0x6b, 0x9a, 0xbd, 0xdc, 0x4d, 0x20, 0xbe,
  0x02, 0x90, 0x81, 0xbd, 0xd0, 0x0c, 0x7d, 0xbd, 0x12, 0x0e, 0xf3, 0x3d,
  0xb8, 0xc6, 0x05, 0xbd, 0xb2, 0xf2, 0x2f, 0xbe, 0xae, 0x9d, 0x82, 0x3d,
  0x0a, 0x7b, 0xd1, 0x3d, 0xc9, 0xc7, 0x5f, 0x3e, 0xa2, 0xd6, 0xda, 0x3d,
  0xd1, 0x0e, 0x67, 0xbe, 0x50, 0x20, 0xaa, 0xbd, 0xc8, 0x6c, 0x85, 0xbc,
  0x7c, 0x24, 0x9a, 0xbd, 0xb7, 0x32, 0xda, 0xbd, 0x8b, 0x1e, 0x44, 0xbe,
  0x66, 0xa7, 0x0c, 0xbe, 0x22, 0x1a, 0xc3, 0x3d, 0xfd, 0x6a, 0x62, 0x3e,
  0x22, 0x2b, 0x9e, 0xbd, 0x20, 0x30, 0x9a, 0x3c, 0x5d, 0x20, 0x5a, 0x3e,
  0x3b, 0x8b, 0x29, 0x3e, 0x67, 0xf2, 0x23, 0xbe, 0x32, 0xe6, 0xb8, 0x3d,
  0xc0, 0x91, 0x37, 0xbd, 0x0b, 0x86, 0x28, 0x3e, 0xc5, 0x4e, 0xb6, 0x3c,
  0x82, 0x4b, 0x5a, 0xbe, 0xe8, 0x5d, 0xc8, 0xbc, 0x6b, 0xb9, 0x0e, 0xbd,
  0xb3, 0x4b, 0x05, 0xbe, 0x65, 0x24, 0xe7, 0xbd, 0x65, 0x21, 0x5b, 0x3e,
  0x2e, 0xe9, 0xd3, 0x3d, 0xff, 0xcd, 0x03, 0xbe, 0x4c, 0xcc, 0xa3, 0x3e,
  0x3e, 0xa5, 0x07, 0xbe, 0x40, 0x6e, 0x3d, 0xbe, 0xc3, 0xcb, 0xaa, 0xbd,
  0x5b, 0x9a, 0x4a, 0x3d, 0x07, 0x95, 0x08, 0xbe, 0x4d, 0xa9, 0x20, 0x3e,
  0x91, 0xdb, 0x84, 0xbe, 0xcb, 0xc0, 0xf6, 0x3d, 0x71, 0xca, 0x4e, 0x3e,
  0x40, 0x5b, 0x2d, 0xbe, 0xdc, 0x1c, 0x36, 0xbe, 0xf6, 0x62, 0x71, 0x3e,
  0x7f, 0x1f, 0x25, 0x3e, 0xb4, 0xa2, 0x83, 0xbd, 0x40, 0xb9, 0x5e, 0xbe,
  0x0d, 0x49, 0xf6, 0x3d, 0x0b, 0x5c, 0x94, 0x3b, 0x6b, 0x1d, 0xb7, 0xbc,
  0x0a, 0xc2, 0x95, 0xbd, 0x03, 0x1b, 0x0d, 0x3e, 0x27, 0x71, 0x15, 0xbe,
  0x4e, 0x9d, 0xda, 0x3d, 0x48, 0x7d, 0x21, 0xbd, 0x1e, 0x0d, 0x81, 0xbc,
  0x8c, 0xa0, 0x23, 0x3e, 0x7e, 0xb9, 0x77, 0xbd, 0x23, 0x77, 0x0d, 0x3e,
  0xab, 0x33, 0xaf, 0x3c, 0xbc, 0x12, 0x55, 0x3d, 0xcc, 0xc3, 0x2c, 0xbd,
  0x88, 0x0c, 0xa3, 0xbd, 0xf5, 0x82, 0xc6, 0x3d, 0xb2, 0xb4, 0xfd, 0xbc,
  0x88, 0x8d, 0x82, 0xbd, 0xb2, 0x52, 0xb4, 0x3d, 0x4b, 0x90, 0x41, 0x3e,
  0x86, 0x82, 0xf2, 0x3d, 0x74, 0xef, 0x22, 0x3d, 0x5b, 0x92, 0xee, 0x3d,
  0xc8, 0x94, 0xc1, 0xbd, 0xa6, 0x59, 0x3d, 0x3d, 0x8b, 0x1b, 0xc3, 0x3e,
  0xe1, 0xed, 0x7d, 0x3e, 0x3a, 0xe0, 0x44, 0xbe, 0xa3, 0xcc, 0x11, 0x3e,
  0x0f, 0x23, 0x0a, 0xbe, 0x32, 0x0a, 0x8b, 0x3e, 0xb9, 0x61, 0x64, 0x3e,
  0xf8, 0x14, 0x28, 0xbe, 0x14, 0x98, 0x63, 0x3d, 0xf5, 0x1c, 0x51, 0x3e,
  0x38, 0x50, 0xb2, 0xbc, 0xd9, 0x90, 0x35, 0x3e, 0x19, 0x23, 0x37, 0x3e,
  0x44, 0x13, 0x4b, 0x3d, 0xb2, 0xd6, 0xf2, 0x3d, 0xe2, 0x64, 0xa7, 0x3d,
  0x41, 0x1b, 0x47, 0x3e, 0xe0, 0x87, 0x40, 0x3c, 0x24, 0x6b, 0xc5, 0xbd,
  0x4a, 0xf4, 0x69, 0xbe, 0x00, 0x6b, 0xe9, 0xbb, 0x21, 0x63, 0x51, 0x3e,
  0x36, 0x64, 0x8d, 0xbd, 0x90, 0x90, 0xa5, 0xbc, 0x78, 0x22, 0x59, 0xbe,
  0x2d, 0x80, 0x06, 0x3e, 0x06, 0x5a, 0xc8, 0x3d, 0xe0, 0x68, 0x1d, 0xbd,
  0xa0, 0x99, 0x18, 0x3c, 0x2a, 0x76, 0x8e, 0xbd, 0xbf, 0x1b, 0x1e, 0xbe,
  0xfe, 0xc7, 0xf4, 0x3d, 0x9b, 0x79, 0x1b, 0x3e, 0xd0, 0xd2, 0x9b, 0x3c,
  0x78, 0xdd, 0x13, 0xbe, 0x85, 0x8a, 0x3e, 0x3e, 0xb1, 0xe1, 0x2f, 0x3e,
  0x3a, 0x57, 0x86, 0x3d, 0x6f, 0x5d, 0x41, 0xbe, 0x30, 0x09, 0x92, 0xbd,
  0xff, 0xa9, 0x20, 0x3e, 0x0e, 0xe2, 0xa6, 0x3d, 0x70, 0x9e, 0xa5, 0xbd,
  0x08, 0xb9, 0x6e, 0xbd, 0xa8, 0x9d, 0x01, 0xbe, 0x02, 0x14, 0xa2, 0x3d,
  0x00, 0x8f, 0xe3, 0xba, 0x1c, 0xa7, 0x6f, 0x3d, 0xf0, 0x8f, 0x27, 0xbe,
  0x3d, 0x62, 0x17, 0x3e, 0x18, 0x14, 0x4a, 0xbd, 0x5c, 0xe4, 0x15, 0xbd,
  0xa8, 0x22, 0x31, 0xbd, 0x2e, 0x4a, 0xc8, 0x3d, 0xd9, 0xd8, 0x25, 0x3e,
  0x08, 0xa1, 0xfe, 0xbc, 0xab, 0x9d, 0x0d, 0x3e, 0x46, 0x64, 0xaf, 0xbd,
  0xba, 0x92, 0x86, 0xbd, 0x9f, 0x55, 0x2f, 0x3e, 0x08, 0xce, 0x0a, 0xbd,
  0x95, 0xcc, 0x56, 0x3e, 0xe7, 0xdb, 0x41, 0x3e, 0x7f, 0x6e, 0x1a, 0xbe,
  0x58, 0xeb, 0x84, 0xbd, 0x18, 0x1f, 0x9c, 0x3c, 0x9c, 0x2c, 0x42, 0xbe,
  0x68, 0x9c, 0xf5, 0x3c, 0x64, 0x77, 0x28, 0xbe, 0xc0, 0x25, 0xb9, 0xbb,
  0x9f, 0x86, 0x4b, 0xbe, 0x50, 0xcd, 0xc8, 0xbc, 0x66, 0x45, 0x5c, 0xbe,
  0x6a, 0x12, 0x44, 0xbe, 0x4b, 0x4c, 0x36, 0x3e, 0x00, 0xf8, 0x1d, 0x3a,
  0x7c, 0x15, 0x14, 0xbe, 0x03, 0x59, 0x48, 0xbe, 0xde, 0x3e, 0xb7, 0x3d,
  0x40, 0x20, 0x04, 0xbe, 0x7a, 0x34, 0xea, 0x3d, 0x6e, 0x0c, 0xda, 0x3d,
  0x72, 0x30, 0x9b, 0x3d, 0x1a, 0x3b, 0x84, 0x3d, 0x9d, 0x78, 0x59, 0x3e,
  0x52, 0x2f, 0x98, 0xbd, 0xde, 0x2a, 0xcd, 0x3d, 0x3c, 0xee, 0x2e, 0x3d,
  0xdb, 0x91, 0x15, 0x3e, 0x24, 0xa6, 0x45, 0x3d, 0x70, 0x46, 0x1d, 0xbc,
  0x00, 0x82, 0x42, 0x3c, 0x26, 0x45, 0x4f, 0xbe, 0x28, 0x31, 0x03, 0xbe,
  0x6e, 0xd3, 0x9f, 0x3d, 0xc0, 0x64, 0x14, 0xbe, 0xe8, 0xf8, 0x86, 0xbd,
  0x34, 0x54, 0x99, 0xbd, 0x88, 0xf5, 0xf1, 0x3c, 0x48, 0x4d, 0xec, 0x3c,
  0x3a, 0x2e, 0xa3, 0x3d, 0x09, 0xa5, 0x33, 0x3e, 0x5c, 0x67, 0x18, 0xbe,
  0x57, 0x66, 0x64, 0x3e, 0x94, 0xf0, 0x5f, 0x3d, 0x00, 0x59, 0x4f, 0x3a,
  0xe4, 0x17, 0xc0, 0xbd, 0xba, 0x79, 0x80, 0x3d, 0x9d, 0xb8, 0x41, 0x3e,
  0x25, 0xf4, 0x0a, 0x3e, 0x64, 0x0a, 0x1a, 0xbd, 0xf2, 0xd0, 0x3e, 0xbe,
  0xf0, 0x5c, 0x52, 0xbd, 0x80, 0xa5, 0xb3, 0xba, 0x80, 0xfb, 0xd8, 0xbc,
  0x1b, 0x85, 0x22, 0x3e, 0xac, 0x6e, 0x13, 0xbd, 0x30, 0x0c, 0x57, 0x3c,
  0x01, 0x4c, 0x3b, 0x3e, 0x96, 0xc4, 0x29, 0xbe, 0xeb, 0xb1, 0x02, 0xbe,
  0x88, 0xcf, 0x0d, 0xbe, 0x3b, 0x32, 0x5b, 0x3e, 0xb8, 0xca, 0xd6, 0xbc,
  0xee, 0xc4, 0xa1, 0x3d, 0x6c, 0xdf, 0x02, 0x3d, 0xe7, 0xcf, 0x60, 0xbe,
  0xb6, 0x05, 0xe9, 0x3d, 0xdf, 0xb7, 0x4f, 0x3e, 0x78, 0x03, 0x49, 0xbe,
  0x20, 0x4c, 0xc3, 0xbb, 0xe6, 0x8d, 0xa0, 0x3d, 0x90, 0x25, 0x7c, 0x3c,
  0x02, 0xcf, 0x03, 0xbe, 0xd3, 0x3e, 0x63, 0xbe, 0xc7, 0x77, 0x3a, 0xbe,
  0xde, 0xc6, 0xcb, 0x3d, 0xc3, 0xe1, 0x6a, 0xbe, 0xe2, 0x68, 0x8f, 0x3d,
  0x46, 0x63, 0xd7, 0x3d, 0x9a, 0xa4, 0x27, 0xbe, 0x6a, 0xfc, 0x76, 0xbe,
  0x83, 0xb7, 0x51, 0xbe, 0x82, 0xd0, 0xee, 0x3d, 0xa9, 0xf8, 0x35, 0xbe,
  0x81, 0xa0, 0xa1, 0xbc, 0x75, 0x3a, 0x0d, 0xbe, 0x80, 0x24, 0xbf, 0xbb,
  0x37, 0xd9, 0x33, 0xbe, 0xb4, 0x49, 0x14, 0xbd, 0x6b, 0x38, 0xfe, 0xbd,
  0x9c, 0xfd, 0x03, 0xbe, 0x04, 0x99, 0x2b, 0x3e, 0xc0, 0xec, 0x2e, 0xbe,
  0x68, 0x23, 0xea, 0xbd, 0x73, 0x99, 0x20, 0xbe, 0xb8, 0x0a, 0x6a, 0x3c,
  0x24, 0x18, 0x18, 0x3c, 0xdc, 0xfe, 0x8d, 0x3c, 0x58, 0x7b, 0xd6, 0xbc,
  0x1f, 0x9c, 0xc6, 0xbd, 0x52, 0x16, 0xe1, 0x3d, 0x01, 0x28, 0x89, 0x3c,
  0x76, 0x21, 0xf8, 0x3d, 0x68, 0x8a, 0x0c, 0xbe, 0x28, 0x99, 0xd1, 0x3c,
  0x33, 0x16, 0x66, 0xbd, 0x71, 0xc7, 0x4b, 0x3e, 0xe6, 0xdd, 0x29, 0xbe,
  0x95, 0x48, 0x4a, 0x3e, 0xc8, 0xa8, 0x45, 0xbe, 0x9c, 0x2d, 0x75, 0x3d,
  0x45, 0x24, 0x00, 0x3e, 0x28, 0x34, 0x04, 0xbe, 0xb3, 0x3a, 0xc1, 0xbd,
  0xd6, 0xec, 0x55, 0x3d, 0x00, 0x08, 0xc9, 0xbc, 0x56, 0x20, 0x19, 0xbe,
  0x46, 0xee, 0xfc, 0x3c, 0x29, 0x91, 0xb6, 0xbd, 0xf7, 0x02, 0x0e, 0x3e,
  0xc9, 0x62, 0x3e, 0xbe, 0x8a, 0x9c, 0xd8, 0x3d, 0x02, 0x75, 0x0c, 0x3e,
  0x77, 0x8b, 0x5f, 0xbd, 0x17, 0x2e, 0x66, 0xbe, 0x13, 0x99, 0xf2, 0xbd,
  0x6f, 0xe2, 0x59, 0xbe, 0x3a, 0xe3, 0x67, 0xbe, 0x1b, 0xf8, 0x0a, 0xbe,
  0xb4, 0x61, 0x15, 0x3d, 0x6a, 0x52, 0x52, 0xbe, 0x48, 0x2a, 0xa3, 0x3d,
  0xb7, 0x36, 0x86, 0x3d, 0x62, 0x2a, 0x54, 0x3d, 0x00, 0x3c, 0xe0, 0xbb,
  0xc8, 0x0a, 0x14, 0xbd, 0x3d, 0x1b, 0x1d, 0x3e, 0xc0, 0x0f, 0x51, 0xbe,
  0xa0, 0x6a, 0x02, 0xbe, 0x11, 0x1c, 0xfa, 0xbd, 0xac, 0x64, 0x52, 0xbd,
  0xf4, 0x90, 0x75, 0xbd, 0x68, 0x6e, 0xdb, 0x3c, 0x53, 0xd8, 0x33, 0xbe,
  0xb0, 0xa3, 0xce, 0xbe, 0x70, 0xa6, 0x48, 0x3c, 0x17, 0x4e, 0x40, 0x3e,
  0x3d, 0x5e, 0x00, 0xbe, 0xe6, 0x21, 0x2c, 0x3e, 0x5a, 0x59, 0x86, 0x3d,
  0xde, 0xbd, 0xc6, 0x3d, 0x43, 0xf4, 0xbc, 0x3d, 0xcb, 0x60, 0xf1, 0xbd,
  0x7f, 0x63, 0x41, 0xbe, 0x7f, 0x1c, 0x52, 0xbe, 0x59, 0x92, 0xa1, 0x3e,
  0x79, 0x5b, 0x9c, 0xbe, 0x46, 0x72, 0x3e, 0x3e, 0x97, 0xcf, 0xcb, 0x3d,
  0x72, 0x29, 0x13, 0x3e, 0x58, 0x3d, 0x0c, 0xbf, 0x15, 0x5c, 0x39, 0xbc,
  0x00, 0x8f, 0x16, 0xbc, 0xbf, 0x7c, 0xfc, 0xbb, 0x7b, 0xdb, 0x1d, 0x3e,
  0x76, 0x9f, 0x03, 0x3e, 0x20, 0x36, 0x5d, 0xbc, 0x30, 0xa9, 0x16, 0xbe,
  0x60, 0x10, 0x0b, 0xbe, 0x29, 0x2d, 0xc6, 0x3d, 0xcc, 0xb8, 0x12, 0xbe,
  0x21, 0xf9, 0xac, 0xbd, 0x74, 0xda, 0x26, 0x3d, 0x62, 0xbf, 0x8a, 0x3d,
  0xd4, 0xcb, 0x28, 0x3d, 0xb0, 0x0f, 0x27, 0x3c, 0x4a, 0x93, 0xbc, 0x3d,
  0xe8, 0xf1, 0x15, 0x3e, 0x89, 0xd0, 0x48, 0xbd, 0xac, 0xee, 0xbe, 0xbe,
  0x89, 0xea, 0x0e, 0x3e, 0xb0, 0x07, 0xb4, 0xbe, 0x95, 0x54, 0x66, 0xbe,
  0x76, 0x54, 0xdc, 0x3d, 0xc2, 0x8f, 0xe6, 0x3d, 0x7c, 0x67, 0xbb, 0xbd,
  0xb9, 0x13, 0x6b, 0xbd, 0xf5, 0xbf, 0x13, 0x3e, 0x68, 0xb6, 0xeb, 0xbc,
  0x24, 0x6b, 0x05, 0x3d, 0x11, 0x9b, 0x09, 0x3e, 0x29, 0xeb, 0x36, 0x3e,
  0xd7, 0xe9, 0x26, 0xbd, 0xb8, 0xf0, 0x85, 0xbc, 0xfa, 0x8c, 0x83, 0x3e,
  0xb7, 0xdb, 0xbd, 0x3e, 0x3a, 0x2f, 0x96, 0x3d, 0xe8, 0xdf, 0x1e, 0x3e,
  0x84, 0x8d, 0x06, 0xbd, 0xc0, 0x0e, 0x32, 0x3d, 0x51, 0xd3, 0x8e, 0x3d,
  0xc1, 0xa7, 0x3d, 0xbe, 0x33, 0x4d, 0x5d, 0x3e, 0x3b, 0xcc, 0x66, 0x3e,
  0x83, 0xa6, 0x35, 0x3e, 0x6d, 0x2d, 0x3f, 0x3e, 0xae, 0x16, 0xf0, 0x3d,
  0x0a, 0x19, 0xed, 0x3d, 0xc8, 0xde, 0x5a, 0x3c, 0x8d, 0xb9, 0x20, 0x3e,
  0x0d, 0x9c, 0x19, 0xbe, 0x89, 0x5d, 0xe9, 0x3d, 0xe6, 0xc5, 0x82, 0x3e,
  0xb0, 0x95, 0x30, 0x3c, 0xeb, 0x22, 0x5a, 0x3e, 0x46, 0xfa, 0x03, 0x3c,
  0x23, 0xc9, 0x51, 0xbe, 0x9c, 0x2e, 0x5a, 0x3e, 0x7c, 0x1c, 0x21, 0x3d,
  0xee, 0x5f, 0x1b, 0x3e, 0xd1, 0x56, 0x91, 0x3d, 0xff, 0x3f, 0x02, 0x3c,
  0x5b, 0x2b, 0x11, 0x3e, 0xe2, 0x25, 0x57, 0xbd, 0x6f, 0xaf, 0x06, 0xbd,
  0x1a, 0xb4, 0xbb, 0x3c, 0x9f, 0x8e, 0x64, 0x3e, 0x25, 0x7b, 0x27, 0xbe,
  0x97, 0xdb, 0x13, 0x3e, 0x36, 0xc4, 0x96, 0x3e, 0x7c, 0x19, 0x04, 0xbe,
  0x11, 0x57, 0x03, 0x3e, 0xdf, 0xa2, 0x5a, 0x3e, 0xe8, 0xbd, 0x94, 0x3d,
  0xde, 0x5f, 0x3b, 0xbe, 0xf6, 0xb7, 0x52, 0x3c, 0x80, 0xf2, 0xfe, 0xbb,
  0x73, 0x0b, 0x10, 0x3e, 0x7d, 0xed, 0x49, 0x3e, 0x6a, 0x99, 0xf3, 0x3d,
  0x80, 0xf6, 0xa6, 0xbb, 0xe3, 0x98, 0x85, 0xbc, 0x71, 0x7e, 0x33, 0xbd,
  0x34, 0x12, 0xb9, 0xbe, 0x1b, 0x19, 0x37, 0x3e, 0x0a, 0x40, 0x1e, 0x3d,
  0x39, 0x93, 0xbb, 0xbd, 0xba, 0x65, 0xdf, 0x3d, 0x60, 0xf8, 0x4a, 0xbc,
  0xa3, 0x0a, 0xca, 0xbd, 0x2b, 0x34, 0x4e, 0x3e, 0xc1, 0x2a, 0x7c, 0x3e,
  0xf0, 0x57, 0x54, 0xbd, 0xcc, 0xbc, 0x86, 0xbd, 0x69, 0xa5, 0x33, 0xbd,
  0x7e, 0x48, 0xaa, 0x3d, 0xae, 0xfa, 0x13, 0xba, 0x7c, 0x60, 0xb6, 0xbd,
  0xe1, 0x66, 0xae, 0xbd, 0xdf, 0x62, 0x49, 0x3e, 0x1f, 0xfd, 0x0a, 0x3e,
  0x76, 0x48, 0x59, 0xbe, 0x80, 0x85, 0x93, 0x3c, 0xa0, 0x6d, 0x79, 0x3e,
  0x80, 0xa0, 0x50, 0xbd, 0xd8, 0xad, 0x86, 0xbc, 0xbd, 0xa9, 0x0c, 0xbe,
  0xe1, 0x43, 0x6a, 0x3e, 0x6a, 0xe7, 0x53, 0xbe, 0xca, 0x0d, 0xc8, 0x3d,
  0x66, 0x91, 0x2a, 0xbe, 0x9e, 0x6b, 0xb0, 0x3d, 0x28, 0x8a, 0xbf, 0x3c,
  0x73, 0xd9, 0x17, 0xbe, 0x10, 0x6b, 0x8e, 0xbd, 0xe2, 0xd9, 0xea, 0x3d,
  0x56, 0xf4, 0x65, 0xbe, 0x6c, 0xac, 0x12, 0xbd, 0x9d, 0x97, 0x0e, 0xbe,
  0x27, 0xab, 0x3e, 0x3e, 0x80, 0xae, 0xd9, 0x3b, 0xa5, 0xfa, 0x54, 0x3e,
  0x0e, 0x02, 0xa9, 0x3d, 0x9b, 0xeb, 0x60, 0x3e, 0xe3, 0xde, 0x00, 0x3e,
  0x10, 0x7b, 0x9f, 0xbc, 0x46, 0x24, 0xf6, 0x3d, 0x2a, 0x9d, 0xe4, 0x3d,
  0xdd, 0xff, 0x52, 0xbe, 0x00, 0x5e, 0x2d, 0xba, 0xf6, 0x71, 0xd3, 0x3d,
  0x40, 0x4e, 0x56, 0xbe, 0x3c, 0xbc, 0x33, 0x3d, 0xc2, 0x86, 0xe0, 0x3d,
  0x4d, 0xf9, 0x25, 0x3e, 0xda, 0xae, 0x61, 0xbe, 0x04, 0xd7, 0x1a, 0x3d,
  0x53, 0xd3, 0x46, 0x3e, 0xa5, 0x0e, 0x19, 0x3e, 0x48, 0x4d, 0xd0, 0x3c,
  0x6b, 0xc8, 0x14, 0x3e, 0x3c, 0xc1, 0x58, 0xbd, 0x23, 0x04, 0x29, 0xbe,
  0x16, 0xbe, 0x8b, 0x3d, 0x9d, 0xa7, 0x25, 0xbe, 0x86, 0x1c, 0xdb, 0x3d,
  0x66, 0xd6, 0xda, 0x3d, 0xda, 0x12, 0x10, 0xbe, 0xa8, 0xd8, 0x07, 0xbe,
  0x7f, 0x01, 0x09, 0x3e, 0x4e, 0xac, 0xe4, 0x3d, 0x18, 0x9b, 0xf7, 0x3c,
  0x41, 0xf0, 0x1d, 0x3e, 0x36, 0x81, 0x17, 0xbe, 0xaf, 0x10, 0xf5, 0xbd,
  0x19, 0xea, 0x3b, 0xbe, 0xb3, 0xc0, 0x1d, 0x3e, 0xd7, 0x98, 0x66, 0x3e,
  0x36, 0xa5, 0xc3, 0x3d, 0x06, 0x01, 0x40, 0xbe, 0xf1, 0x71, 0x64, 0x3e,
  0x1a, 0x76, 0x8d, 0x3d, 0xd0, 0x7f, 0xa1, 0x3c, 0xaa, 0x62, 0x31, 0xbe,
  0x96, 0x23, 0x48, 0xbe, 0x56, 0xb2, 0xa9, 0x3d, 0x24, 0x26, 0x4f, 0xbd,
  0xf8, 0xbc, 0x9d, 0xbc, 0x48, 0xcd, 0x24, 0xbe, 0xff, 0x7c, 0x4b, 0x3e,
  0xc0, 0xae, 0x83, 0xbb, 0x78, 0x4f, 0xb4, 0xbc, 0x54, 0x14, 0x73, 0xbd,
  0x44, 0x2b, 0x21, 0xbd, 0xc4, 0x08, 0x65, 0xbe, 0xce, 0x20, 0xf5, 0x3d,
  0x2e, 0x79, 0x12, 0x3e, 0xa2, 0x39, 0xb4, 0x3d, 0xba, 0xa9, 0x1f, 0xbe,
  0xc8, 0x6f, 0x9c, 0xbd, 0x4e, 0x17, 0x21, 0xbe, 0x40, 0xe2, 0xb0, 0xbd,
  0x75, 0xde, 0x35, 0x3e, 0x30, 0xa9, 0x03, 0x3e, 0x0d, 0xc0, 0x37, 0xbe,
  0xf0, 0x21, 0xab, 0x3e, 0xf0, 0x21, 0x97, 0xbc, 0xce, 0xc3, 0x5b, 0xbc,
  0xaf, 0xae, 0xbe, 0x3e, 0x65, 0xe7, 0xf1, 0xbd, 0x04, 0x81, 0xe9, 0x3b,
  0x0b, 0x55, 0x50, 0x3d, 0xbe, 0x52, 0x37, 0x3f, 0xa3, 0x1a, 0x5c, 0x3e,
  0x40, 0xf2, 0x44, 0x3b, 0x6a, 0x09, 0xbe, 0x3c, 0x02, 0x2f, 0x51, 0xbe,
  0x5d, 0x2e, 0xfd, 0x3d, 0xa5, 0xd6, 0x35, 0xbe, 0xee, 0x96, 0xc8, 0x3d,
  0x73, 0x31, 0x14, 0x3e, 0x1c, 0x0a, 0x8f, 0x3e, 0x5a, 0x91, 0x39, 0x3e,
  0xe1, 0x9a, 0x24, 0x3e, 0x98, 0x9e, 0xbd, 0xbd, 0x21, 0x27, 0x0a, 0x3e,
  0x5b, 0xed, 0x5e, 0xbe, 0x6e, 0xdc, 0x68, 0xbe, 0x25, 0x0a, 0x3b, 0xbe,
  0x1b, 0x1e, 0x64, 0xbd, 0x20, 0xf9, 0xe0, 0xbc, 0x26, 0xe8, 0xd6, 0xbc,
  0xe8, 0xb7, 0xe6, 0x3c, 0x0e, 0xef, 0xc1, 0x3e, 0x26, 0xab, 0x35, 0xbd,
  0x91, 0x16, 0xf2, 0xbd, 0x5f, 0xc7, 0x62, 0xbe, 0xac, 0x43, 0x43, 0x3b,
  0xdb, 0xad, 0x00, 0xbe, 0xe7, 0xc0, 0x92, 0xbd, 0xa3, 0x48, 0x1f, 0x3e,
  0xbf, 0x3a, 0x59, 0x3e, 0xd1, 0xf9, 0x93, 0xbd, 0xcb, 0x17, 0x18, 0xbe,
  0x51, 0x47, 0x67, 0xbe, 0x68, 0xaf, 0x2b, 0xbe, 0x8f, 0x1e, 0xa0, 0x3d,
  0x0a, 0x0d, 0x93, 0xbe, 0xdb, 0x03, 0x42, 0x3e, 0xfe, 0x30, 0x0f, 0xbe,
  0x5b, 0x34, 0x04, 0x3e, 0x69, 0xd3, 0x32, 0xbe, 0x31, 0xc6, 0xaa, 0x3d,
  0xfc, 0x55, 0x7f, 0xbd, 0x3c, 0xc5, 0xd2, 0xbd, 0x18, 0xcd, 0x83, 0x3c,
  0x52, 0xb4, 0xc3, 0xbd, 0x35, 0x1f, 0x11, 0x3e, 0xf0, 0x5e, 0xf9, 0xbc,
  0x9f, 0xf7, 0x0f, 0x3e, 0xc2, 0xe7, 0x4a, 0xbc, 0x56, 0x70, 0x94, 0xbd,
  0x59, 0xd2, 0x56, 0x3e, 0x9b, 0xae, 0x60, 0xbe, 0x67, 0x6a, 0x19, 0xbe,
  0xac, 0x97, 0x0c, 0xbe, 0xa4, 0x0f, 0x4c, 0xbe, 0xb8, 0xae, 0x1b, 0x3e,
  0x5c, 0x8c, 0x05, 0xbd, 0xf5, 0xca, 0xb3, 0x3d, 0x37, 0xb5, 0x2d, 0xbe,
  0x28, 0xd6, 0x2e, 0x3e, 0x91, 0x30, 0x33, 0x3e, 0x11, 0xe6, 0x10, 0xbe,
  0xe3, 0xda, 0x16, 0xbe, 0x8e, 0x53, 0x40, 0x3e, 0x3e, 0x79, 0x87, 0x3d,
  0x82, 0x48, 0x7c, 0xbe, 0x80, 0x42, 0x83, 0x3b, 0x91, 0xe0, 0x13, 0xbd,
  0xe6, 0x5b, 0xaa, 0xbd, 0x20, 0xf6, 0x87, 0xbd, 0xa6, 0x07, 0x63, 0xbe,
  0x8b, 0x34, 0x39, 0x3e, 0xfb, 0x86, 0x0f, 0xbe, 0xbd, 0x40, 0x0d, 0x3e,
  0x66, 0x22, 0x5b, 0x3e, 0xdc, 0x3f, 0x03, 0xbe, 0x37, 0xfc, 0x5b, 0x3e,
  0x65, 0x04, 0x66, 0x3e, 0xe9, 0x63, 0x57, 0x3e, 0xc6, 0xbf, 0x8d, 0x3d,
  0xd2, 0xbf, 0x20, 0xbe, 0x22, 0x84, 0x13, 0xbd, 0x5f, 0x20, 0x34, 0xbe,
  0xba, 0xd5, 0x51, 0x3e, 0x5b, 0xe6, 0x2c, 0x3e, 0x25, 0x92, 0xa4, 0x3d,
  0x66, 0x98, 0xf8, 0xbd, 0x1a, 0x77, 0xb8, 0x3d, 0x24, 0xdc, 0x7b, 0xbd,
  0x09, 0xc6, 0x1b, 0x3e, 0xa7, 0x0f, 0x27, 0xbc, 0xe9, 0x04, 0x4a, 0xbe,
  0xcd, 0x05, 0x19, 0x3e, 0xbe, 0xb2, 0x0a, 0xbe, 0xd9, 0xc3, 0xfc, 0xbd,
  0xf9, 0x85, 0x2b, 0x3e, 0xa6, 0x25, 0xd1, 0x3c, 0x00, 0x95, 0x3c, 0xbe,
  0x57, 0x1a, 0x2e, 0x3d, 0xfb, 0x21, 0xc9, 0xbd, 0xcb, 0x91, 0x4c, 0x3e,
  0x2e, 0xfb, 0xd1, 0x3c, 0xf3, 0xad, 0x62, 0x3e, 0xcd, 0xa1, 0x63, 0xbe,
  0x07, 0xfa, 0x05, 0x39, 0x8b, 0xc5, 0x2d, 0x3e, 0x7f, 0xb9, 0x08, 0x3e,
  0x9b, 0xac, 0x5c, 0x3e, 0x48, 0x5f, 0xc3, 0xbc, 0x58, 0xd2, 0xb3, 0xbc,
  0xf8, 0x7a, 0xad, 0x3c, 0xcc, 0xfa, 0x11, 0x3d, 0xe8, 0x7c, 0x9c, 0xbc,
  0x84, 0x2d, 0x9c, 0xbd, 0xe2, 0xba, 0xa3, 0x3d, 0xcc, 0x8b, 0x60, 0xbe,
  0x08, 0x3c, 0x22, 0xbe, 0xae, 0xda, 0x2a, 0xbe, 0x68, 0x73, 0xac, 0x3c,
  0x62, 0x34, 0xa9, 0xbd, 0x26, 0x1d, 0xb0, 0xbd, 0x4e, 0xee, 0xc3, 0x3d,
  0x56, 0xc2, 0xdb, 0x3d, 0x00, 0x18, 0xef, 0x3a, 0x2e, 0xb5, 0xcd, 0x3d,
  0x7e, 0x61, 0xfa, 0x3d, 0x2b, 0xb5, 0x67, 0x3e, 0x60, 0x1b, 0xdf, 0xbb,
  0x83, 0xf1, 0x53, 0x3e, 0x99, 0xe7, 0x58, 0xbe, 0x90, 0x8d, 0xf3, 0xbc,
  0xbc, 0x51, 0x68, 0x3d, 0x20, 0xc8, 0x29, 0xbd, 0x54, 0xcd, 0x44, 0xbe,
  0xf2, 0x86, 0xb2, 0x3d, 0x3e, 0x6e, 0xbb, 0x3d, 0x77, 0x98, 0x32, 0x3e,
  0x56, 0x45, 0x4d, 0xbe, 0xda, 0x53, 0xea, 0x3d, 0x58, 0x04, 0xee, 0x3c,
  0xe4, 0x37, 0xcc, 0xbd, 0x27, 0xd6, 0x2e, 0x3e, 0xb8, 0xcd, 0xd1, 0xbd,
  0x6b, 0x09, 0x20, 0x3e, 0x93, 0x1b, 0xd6, 0xbd, 0xbc, 0x8b, 0x31, 0xbd,
  0x0f, 0xb3, 0x0b, 0x3e, 0x80, 0x3e, 0x4b, 0xbb, 0xee, 0xd4, 0xc0, 0xbd,
  0x7c, 0xf4, 0x0f, 0x3d, 0x5c, 0xf5, 0x45, 0x3d, 0xe1, 0x7e, 0x5f, 0x3e,
  0x50, 0xe7, 0x0d, 0xbc, 0xe7, 0x68, 0x53, 0x3e, 0xb6, 0x31, 0x81, 0x3d,
  0xde, 0x7a, 0x87, 0xbd, 0x52, 0x30, 0x9b, 0xbd, 0x18, 0x1e, 0x39, 0xbe,
  0x55, 0x0d, 0x25, 0x3e, 0x20, 0x1d, 0xf2, 0xbc, 0x16, 0x86, 0x64, 0xbe,
  0xc6, 0xae, 0xd8, 0xbd, 0x5b, 0x31, 0x1b, 0x3e, 0x80, 0xa3, 0x88, 0xbb,
  0xef, 0x9a, 0x3c, 0xbe, 0x8a, 0x5a, 0x98, 0xbd, 0xb6, 0x2d, 0x1c, 0xbe,
  0x32, 0xe5, 0x64, 0xbe, 0x04, 0xe8, 0x67, 0xbe, 0x98, 0x91, 0xe3, 0x3c,
  0xeb, 0xfa, 0x3a, 0xbe, 0x28, 0x83, 0xb1, 0x3c, 0xe8, 0x53, 0x6a, 0xbd,
  0xb9, 0xe7, 0x5d, 0x3e, 0xbe, 0x6e, 0xd3, 0xbd, 0x70, 0x04, 0xd5, 0xbd,
  0x99, 0xc9, 0x44, 0xbe, 0x95, 0xa3, 0x3c, 0x3e, 0x38, 0x25, 0x89, 0xbc,
  0x99, 0x80, 0x35, 0xbe, 0xba, 0x25, 0x6f, 0xbe, 0x94, 0xbd, 0x12, 0x3d,
  0x5c, 0x92, 0x6c, 0x3d, 0x3a, 0x6c, 0x9d, 0x3d, 0x36, 0x05, 0xc7, 0xbd,
  0x98, 0x53, 0x00, 0xbe, 0x60, 0xe6, 0xe9, 0x3b, 0xad, 0x56, 0x03, 0x3e,
  0x5d, 0x73, 0x39, 0xbe, 0x35, 0x77, 0xdf, 0x3c, 0x4a, 0xad, 0x6b, 0x3d,
  0x29, 0xfc, 0x68, 0x3d, 0x20, 0x46, 0x27, 0x3b, 0xfb, 0xc1, 0xe0, 0xbd,
  0x14, 0x86, 0x57, 0x3d, 0x1d, 0x84, 0x3f, 0x3e, 0x5e, 0x8e, 0x5a, 0xbe,
  0x73, 0x10, 0x2e, 0xbe, 0xf6, 0x33, 0xa1, 0xbd, 0x6a, 0x3f, 0x37, 0xbe,
  0x17, 0xeb, 0x21, 0x3e, 0xb0, 0x96, 0xdc, 0x3d, 0x4c, 0x91, 0xa5, 0x3d,
  0x18, 0x8d, 0xd2, 0xbd, 0xea, 0xaf, 0x8f, 0xbd, 0xd2, 0xa0, 0x99, 0x3d,
  0x3c, 0x47, 0x24, 0xbd, 0x52, 0xb3, 0x9d, 0x3d, 0xa0, 0xc0, 0xe3, 0x3b,
  0xa0, 0x04, 0x30, 0x3e, 0x11, 0x36, 0x1b, 0xbe, 0x33, 0xe9, 0x42, 0x3e,
  0x38, 0xbb, 0x3b, 0xbd, 0x56, 0x2e, 0x27, 0xbe, 0x0a, 0xd1, 0xae, 0xbc,
  0x94, 0x11, 0x4e, 0x3d, 0x80, 0xdc, 0x70, 0x3c, 0x32, 0x2e, 0xac, 0x3c,
  0x4d, 0x33, 0xa3, 0xbd, 0x3a, 0x6d, 0x02, 0x3e, 0x38, 0xfa, 0x38, 0xbd,
  0xcf, 0x33, 0x45, 0x3e, 0x6e, 0x68, 0xbb, 0xbc, 0x36, 0x10, 0xc2, 0x3d,
  0xf3, 0x9e, 0xec, 0xbd, 0x20, 0x8c, 0x12, 0xbe, 0x85, 0xee, 0x77, 0xbe,
  0x16, 0xab, 0x14, 0xbd, 0xee, 0x1f, 0x90, 0xbd, 0x11, 0x92, 0x5b, 0xbe,
  0x13, 0x88, 0x2f, 0xbe, 0xc0, 0x76, 0xd1, 0x3d, 0x42, 0x03, 0x48, 0x3e,
  0x03, 0x04, 0x4f, 0x3e, 0x4a, 0x45, 0xb5, 0x3d, 0xa8, 0x24, 0x8a, 0xbc,
  0x96, 0xdf, 0xd4, 0xbd, 0x00, 0xb9, 0x05, 0xbe, 0xe8, 0x10, 0xdb, 0xbc,
  0x6f, 0x73, 0x0f, 0x3e, 0x85, 0xb7, 0xca, 0x3c, 0xe1, 0x2f, 0x2c, 0x3e,
  0x1d, 0xf6, 0x4e, 0x3e, 0x18, 0x24, 0x1c, 0x3d, 0xf2, 0xd8, 0x3b, 0x3e,
  0x12, 0x9e, 0xed, 0x3d, 0xf6, 0x55, 0xb0, 0x3d, 0x2f, 0xb6, 0xbe, 0xbd,
  0x8c, 0xc0, 0x44, 0x3e, 0xf7, 0xba, 0xf4, 0x3d, 0x57, 0x66, 0x25, 0x3e,
  0x4b, 0x15, 0xfb, 0xbd, 0x59, 0x97, 0x6e, 0x3d, 0xc7, 0xde, 0xe6, 0x3d,
  0x88, 0x83, 0x30, 0xbe, 0xd1, 0x95, 0x04, 0x3e, 0x35, 0xe9, 0x95, 0xbd,
  0x1a, 0xa9, 0x73, 0x3e, 0x2d, 0xcb, 0x20, 0xbe, 0x37, 0x85, 0x33, 0xbd,
  0xa6, 0x5b, 0xd0, 0xbd, 0xa7, 0x53, 0xc9, 0xbd, 0xf5, 0xd5, 0xf2, 0xbd,
  0x29, 0xf6, 0x4a, 0xbe, 0x30, 0x25, 0xbe, 0xbc, 0x66, 0x86, 0x35, 0xbe,
  0xa5, 0x6b, 0x41, 0xbd, 0x91, 0x4f, 0x8f, 0x3e, 0xb8, 0x65, 0x71, 0xbd,
  0x01, 0x21, 0x10, 0x3e, 0xda, 0x70, 0x94, 0xbd, 0xd6, 0x31, 0x00, 0xbe,
  0x75, 0x2b, 0x37, 0xbe, 0x73, 0x99, 0x8a, 0x3e, 0xfb, 0x36, 0x80, 0x3e,
  0x96, 0x92, 0xa2, 0xbe, 0x15, 0xbe, 0x38, 0x3e, 0xcb, 0x82, 0x10, 0x3e,
  0x0f, 0xea, 0x8a, 0x3e, 0x05, 0xfe, 0xed, 0xbd, 0x71, 0xa8, 0x1a, 0x3e,
  0xe2, 0xef, 0x0f, 0x3e, 0x6c, 0xc3, 0xe9, 0xbc, 0x9a, 0x66, 0x68, 0xbd,
  0x95, 0xfd, 0x3c, 0x3e, 0x57, 0xab, 0x4c, 0xbe, 0x15, 0x13, 0xbe, 0xbd,
  0x02, 0xd5, 0xc3, 0x3d, 0xf6, 0x32, 0xd2, 0x3d, 0xa2, 0x8c, 0x1a, 0xbe,
  0x5d, 0x69, 0x0a, 0x3e, 0xb7, 0x57, 0xb0, 0x3d, 0x92, 0xca, 0x5f, 0x38,
  0x0f, 0xd2, 0x73, 0xbe, 0x62, 0x52, 0x83, 0x3d, 0x96, 0xcc, 0x3f, 0xbd,
  0x8d, 0xc1, 0x41, 0x3e, 0x40, 0x1e, 0x94, 0x3b, 0xe0, 0x94, 0x97, 0x3c,
  0x31, 0xdb, 0x33, 0x3e, 0xb0, 0x38, 0xd3, 0xbd, 0x58, 0x44, 0xbd, 0x3c,
  0x60, 0x68, 0x70, 0xbd, 0xa0, 0xc3, 0xa8, 0x3b, 0x01, 0xa2, 0x1a, 0xbe,
  0x24, 0xe2, 0x61, 0xbe, 0x57, 0xb6, 0x3a, 0x3e, 0xcc, 0x1f, 0x26, 0xbb,
  0xfc, 0xd4, 0x0e, 0x3e, 0xe6, 0x14, 0xca, 0x3d, 0x35, 0x01, 0x02, 0x3e,
  0xc5, 0x4f, 0x25, 0x3e, 0xef, 0x62, 0xb6, 0x3d, 0x0a, 0xaa, 0xb5, 0x3e,
  0x97, 0x88, 0x40, 0x3e, 0x07, 0x66, 0x69, 0x3c, 0x40, 0xe4, 0x69, 0x3e,
  0x2e, 0x76, 0x8f, 0xbe, 0xea, 0x3e, 0x16, 0xbe, 0x6b, 0x1f, 0xcd, 0x3d,
  0xc5, 0xaf, 0x00, 0x3f, 0x74, 0xcf, 0x51, 0xbd, 0x67, 0x74, 0x19, 0x3e,
  0xcd, 0x5f, 0x8a, 0xbd, 0x40, 0x8e, 0x23, 0x3b, 0xca, 0x42, 0xad, 0x3d,
  0x59, 0x32, 0x2b, 0xbe, 0x50, 0x29, 0x42, 0xbe, 0x00, 0x4c, 0xc7, 0xbc,
  0x11, 0x0d, 0x73, 0x3e, 0xe6, 0x62, 0x39, 0xbe, 0xad, 0xbf, 0xd9, 0x3c,
  0x04, 0x7c, 0x7d, 0x3d, 0x41, 0x20, 0x02, 0x3e, 0x3e, 0xf8, 0xdf, 0x3d,
  0xb6, 0x94, 0xcc, 0x3d, 0x97, 0x74, 0x5a, 0x3e, 0x0c, 0x77, 0x02, 0x3e,
  0xe0, 0xa2, 0x7c, 0x3e, 0xc1, 0x45, 0xad, 0xbc, 0x3f, 0x01, 0x23, 0x3e,
  0xbc, 0x63, 0xc4, 0x3c, 0x6d, 0x2b, 0xc1, 0x3d, 0x4f, 0x3b, 0x52, 0xbe,
  0xa0, 0x70, 0xdd, 0xbd, 0x22, 0x55, 0xbb, 0xbd, 0xf7, 0x96, 0x85, 0xbd,
  0x5c, 0x58, 0x46, 0xbe, 0xfe, 0xf9, 0x1a, 0xbe, 0x04, 0x86, 0x26, 0x3d,
  0x3b, 0xa6, 0xed, 0xbd, 0xf0, 0x07, 0x09, 0xbc, 0x67, 0xcf, 0x51, 0x3d,
  0x50, 0xb7, 0xce, 0xbc, 0xc5, 0xda, 0x3d, 0x3e, 0x66, 0x10, 0xa5, 0xbe,
  0x26, 0xf9, 0x71, 0xbe, 0x00, 0xee, 0xe5, 0xbd, 0xf8, 0x31, 0xab, 0x3c,
  0x48, 0xc1, 0xed, 0x3d, 0xd7, 0x7e, 0xf7, 0x3c, 0x21, 0x55, 0x1d, 0xbe,
  0x8e, 0xb9, 0x46, 0xbe, 0xeb, 0xd4, 0x19, 0x3e, 0xe4, 0x57, 0xc9, 0xbd,
  0xfd, 0x40, 0x4d, 0x3e, 0x60, 0x79, 0x5d, 0xbc, 0x31, 0x31, 0x10, 0x3e,
  0xc0, 0xdb, 0xa5, 0xbb, 0x77, 0x04, 0x2b, 0xbe, 0xfa, 0x24, 0x20, 0xbe,
  0x76, 0xd0, 0xc5, 0x3d, 0xbd, 0x4e, 0x3a, 0x3e, 0x74, 0x12, 0xaf, 0xbd,
  0xb4, 0x77, 0x16, 0xbe, 0x96, 0x06, 0x2d, 0xbe, 0x7c, 0xc2, 0x2a, 0x3d,
  0xfe, 0x35, 0xa2, 0x3d, 0xbf, 0x4c, 0x63, 0xbe, 0xf3, 0x1a, 0x4c, 0x3e,
  0x36, 0xea, 0x41, 0xbe, 0xb4, 0x21, 0x0d, 0x3d, 0x43, 0x66, 0x48, 0xbe,
  0x39, 0x90, 0x16, 0xbe, 0x31, 0xf3, 0x50, 0x3e, 0x90, 0x2d, 0x39, 0xbc,
  0x1c, 0x94, 0xab, 0xbd, 0x74, 0x1f, 0x77, 0xbd, 0x34, 0x5b, 0x35, 0xbe,
  0xd5, 0x9f, 0x1f, 0x3e, 0xc0, 0x16, 0x3a, 0xbe, 0x00, 0x98, 0x09, 0x3a,
  0x63, 0x9a, 0x07, 0x3e, 0x28, 0x0a, 0x18, 0xbd, 0x17, 0xca, 0x2e, 0xbe,
  0xf0, 0xa6, 0x85, 0x3c, 0x74, 0x06, 0x23, 0x3d, 0x68, 0xd7, 0xb8, 0xbc,
  0x06, 0x83, 0x9e, 0xbd, 0x0f, 0x57, 0x02, 0x3e, 0x6c, 0xe0, 0x5f, 0xbe,
  0x08, 0x5a, 0xb7, 0xbd, 0xa0, 0x49, 0xe1, 0xbc, 0x70, 0x23, 0x70, 0xbd,
  0x07, 0x49, 0x59, 0xbe, 0xa4, 0x97, 0x01, 0xbd, 0xf8, 0x69, 0x97, 0xbc,
  0x84, 0x8b, 0x5d, 0x3d, 0x44, 0xcf, 0x09, 0xbd, 0xdd, 0xc1, 0x3b, 0xbe,
  0xb2, 0x2c, 0x40, 0xbe, 0xb8, 0x2c, 0xd8, 0x3c, 0x2d, 0x88, 0x29, 0x3e,
  0xa5, 0xaa, 0x1c, 0x3e, 0x50, 0x62, 0x4e, 0xbe, 0x5b, 0xc3, 0x5f, 0x3e,
  0x5b, 0x31, 0x2c, 0x3e, 0xe1, 0xd7, 0x22, 0x3e, 0xa6, 0xbb, 0x85, 0xbd,
  0xa8, 0x22, 0xb2, 0xbd, 0x00, 0xe8, 0x2e, 0xbc, 0xb2, 0x71, 0xab, 0x3d,
  0x19, 0xd7, 0x01, 0x3e, 0x68, 0xf4, 0x9b, 0xbc, 0x89, 0x61, 0x17, 0xbe,
  0x7f, 0xbc, 0x2f, 0xbe, 0x01, 0x53, 0x09, 0x3e, 0xcc, 0x68, 0x64, 0x3d,
  0xa8, 0xbc, 0xad, 0xbd, 0x7c, 0x98, 0x57, 0xbd, 0xde, 0xf1, 0x28, 0xbe,
  0x7c, 0x49, 0x14, 0xbd, 0xfe, 0x26, 0x98, 0xbd, 0x60, 0x67, 0x41, 0x3c,
  0x20, 0xb0, 0x1a, 0xbc, 0xa2, 0xa6, 0x0a, 0xbd, 0xbc, 0x42, 0x27, 0xbd,
  0x7b, 0xee, 0x18, 0x3e, 0x6e, 0xff, 0x93, 0x3d, 0xd1, 0x7b, 0xe9, 0x3d,
  0x5f, 0xf6, 0x8f, 0x3d, 0x1e, 0xd5, 0x1b, 0xbd, 0x98, 0x36, 0x2e, 0xbd,
  0xc8, 0x60, 0x32, 0x3e, 0x4c, 0xe9, 0x2d, 0x3d, 0xfd, 0x64, 0x54, 0xbd,
  0x8c, 0x79, 0x0c, 0x3e, 0xa9, 0x75, 0x74, 0xbe, 0xf9, 0xe4, 0x43, 0x3d,
  0xd1, 0xa0, 0x5a, 0xbd, 0xc2, 0xe2, 0x50, 0xbe, 0xd2, 0xeb, 0x4b, 0x3e,
  0x60, 0x7b, 0x4b, 0xbc, 0xf7, 0x92, 0x89, 0xbd, 0x40, 0xff, 0x95, 0xbc,
  0x08, 0xca, 0x89, 0xbc, 0xd2, 0x0e, 0xf5, 0x3d, 0x30, 0xad, 0x10, 0x3e,
  0x10, 0xcd, 0x29, 0xbe, 0xfb, 0x3a, 0x33, 0xbe, 0x72, 0x70, 0xc5, 0xbd,
  0x1c, 0x9d, 0xfe, 0xbd, 0x00, 0x7b, 0x16, 0x3a, 0xcc, 0xa7, 0x1f, 0x3d,
  0x40, 0x76, 0x64, 0x3b, 0xaf, 0xcd, 0x6e, 0xb7, 0x11, 0x6e, 0xc5, 0x3d,
  0xa6, 0x6d, 0x13, 0x3e, 0x35, 0x7b, 0x24, 0x3e, 0x5a, 0xcc, 0x5b, 0xbe,
  0x22, 0x16, 0x65, 0xbe, 0xea, 0x81, 0xb9, 0x3d, 0x58, 0x0c, 0xa7, 0xbc,
  0xd4, 0xe4, 0x38, 0xbe, 0x14, 0x0c, 0x61, 0xbe, 0x49, 0x3c, 0x0f, 0xbe,
  0x80, 0x94, 0xdb, 0xba, 0x6e, 0x0b, 0x44, 0xbe, 0xeb, 0x69, 0x11, 0x3e,
  0x6a, 0x75, 0xdd, 0x3d, 0x7f, 0xfe, 0x38, 0xbe, 0xea, 0x93, 0xc4, 0xbd,
  0x6b, 0x26, 0x12, 0x3e, 0x1a, 0x8f, 0xd9, 0x3d, 0xeb, 0x93, 0x62, 0xbd,
  0xac, 0x93, 0x4d, 0x3e, 0x9a, 0xa3, 0xf3, 0x3d, 0x77, 0xdf, 0x24, 0x3e,
  0x0f, 0xd9, 0x27, 0xbe, 0xc3, 0xde, 0xf1, 0xbd, 0x56, 0x17, 0x65, 0xbe,
  0x9a, 0x1f, 0xf5, 0x3d, 0x21, 0x7b, 0x51, 0x3e, 0x2f, 0x48, 0x42, 0xbe,
  0x42, 0x3f, 0x86, 0x3d, 0xcf, 0xa5, 0x35, 0xbe, 0xea, 0xf2, 0x01, 0xbe,
  0x02, 0xae, 0x35, 0xbe, 0x47, 0x97, 0x1a, 0x3e, 0x42, 0x08, 0xaa, 0x3d,
  0x42, 0x2d, 0x9a, 0xbd, 0x43, 0xe3, 0x3b, 0x3e, 0xf7, 0x2e, 0x2e, 0x3e,
  0xb6, 0x28, 0xac, 0x3d, 0xb2, 0xd9, 0xb8, 0x3d, 0xec, 0xee, 0x8d, 0xbd,
  0x95, 0x09, 0x15, 0x3e, 0xb5, 0x28, 0x46, 0x3e, 0xe2, 0xd9, 0xef, 0x3d,
  0x56, 0x54, 0x38, 0xbe, 0x47, 0x90, 0x29, 0x3e, 0xf0, 0xb2, 0x11, 0xbe,
  0xce, 0x0d, 0xb5, 0xbd, 0xf0, 0x3e, 0x52, 0xbd, 0x30, 0xa0, 0xc9, 0xbd,
  0x56, 0xf0, 0xab, 0xbd, 0x08, 0x93, 0xd9, 0x3c, 0xb4, 0x5c, 0x54, 0x3d,
  0x55, 0x74, 0x54, 0xbe, 0x80, 0xd2, 0xe4, 0xbb, 0x16, 0x02, 0xa8, 0x3d,
  0xe2, 0x66, 0xa8, 0x3d, 0x90, 0x1b, 0xdf, 0xbc, 0x67, 0x63, 0x5f, 0x3e,
  0xd0, 0xce, 0x71, 0xbc, 0x78, 0xdd, 0xbf, 0x3c, 0x6b, 0x4c, 0xf5, 0xbd,
  0x5a, 0xc3, 0x55, 0xbe, 0x46, 0xec, 0x9d, 0x3d, 0x1a, 0xb9, 0xff, 0x3d,
  0xf8, 0xf6, 0xc4, 0x3c, 0x54, 0xc8, 0x78, 0x3d, 0xb7, 0x3c, 0x2d, 0x3e,
  0x61, 0xde, 0x57, 0x3e, 0xe4, 0x55, 0x05, 0xbe, 0x2e, 0x1c, 0x42, 0xbe,
  0x6b, 0xeb, 0x0e, 0x3e, 0xe6, 0xef, 0x89, 0x3d, 0xc6, 0xcf, 0x97, 0xbd,
  0xa0, 0xc6, 0x96, 0x3c, 0x2a, 0x8d, 0x87, 0xbd, 0xcc, 0xce, 0x3c, 0x3d,
  0xa9, 0xbf, 0x25, 0x3e, 0x9e, 0x0d, 0xab, 0x3d, 0x7e, 0x50, 0xc9, 0xbd,
  0xb6, 0xd2, 0xb3, 0x3d, 0xc0, 0x5d, 0x1b, 0xbd, 0x03, 0xb8, 0x2b, 0x3e,
  0xc8, 0xf6, 0x59, 0xbe, 0x99, 0xc2, 0x4c, 0xbe, 0x83, 0xbf, 0x61, 0x3e,
  0xa2, 0x8a, 0xbb, 0x3d, 0x4e, 0x30, 0x49, 0xbe, 0x60, 0x58, 0x7a, 0xbd,
  0x30, 0xbe, 0xee, 0xbc, 0x5e, 0x70, 0x86, 0x3d, 0x1f, 0x6b, 0x1c, 0x3e,
  0xe0, 0xbe, 0x9e, 0xbd, 0x84, 0x1b, 0x05, 0xbd, 0x21, 0x5b, 0x01, 0xbe,
  0x9e, 0x11, 0x90, 0xbd, 0xe3, 0x8c, 0x0e, 0xbe, 0x13, 0xa2, 0x61, 0x3e,
  0x74, 0x77, 0x36, 0xbd, 0xab, 0x6b, 0x1e, 0xbe, 0xb8, 0x33, 0x4a, 0xbe,
  0x7d, 0x57, 0x0f, 0x3e, 0xcb, 0x89, 0x6a, 0x3e, 0xda, 0x08, 0x82, 0x3d,
  0x28, 0x23, 0xe8, 0x3c, 0x45, 0xa6, 0x42, 0x3e, 0x21, 0xfb, 0x3b, 0x3e,
  0xe9, 0x40, 0x1e, 0xbe, 0xe2, 0x69, 0x99, 0xbd, 0xb6, 0xa4, 0x3f, 0xbe,
  0x8a, 0x6a, 0xc0, 0xbd, 0x05, 0xd0, 0x22, 0xbe, 0xc7, 0x48, 0x02, 0x3e,
  0xa0, 0x03, 0x0d, 0xbe, 0xac, 0x89, 0x4c, 0xbe, 0xb3, 0xf6, 0xd5, 0xbd,
  0x84, 0xf2, 0x79, 0xbd, 0xfd, 0xdc, 0x19, 0x3e, 0x3e, 0x2d, 0xd5, 0xbd,
  0xe9, 0x03, 0x61, 0x3e, 0xb6, 0x45, 0x0d, 0xbe, 0x90, 0xef, 0xcf, 0xbd,
  0x8f, 0xfb, 0x00, 0x3e, 0xed, 0xd4, 0x20, 0xbe, 0xdf, 0xe6, 0x28, 0x3e,
  0xb4, 0x03, 0xbd, 0xbd, 0xae, 0x19, 0xac, 0x3d, 0x41, 0x32, 0x23, 0xbe,
  0xb8, 0xbb, 0x31, 0xbe, 0xbe, 0xea, 0xd3, 0xbd, 0xee, 0x03, 0xed, 0x3d,
  0x24, 0x49, 0x4a, 0x3d, 0xda, 0xfc, 0x50, 0xbe, 0x0c, 0x52, 0x38, 0x3d,
  0x2f, 0xfe, 0x67, 0xbe, 0x5c, 0x34, 0x0b, 0x3d, 0xc8, 0x46, 0x64, 0xbd,
  0x6d, 0xe8, 0x0c, 0xbe, 0xe5, 0x09, 0x4a, 0x3e, 0x38, 0xd6, 0x12, 0xbd,
  0xce, 0x7d, 0xf6, 0x3d, 0xe0, 0x70, 0x76, 0xbc, 0x78, 0x2b, 0xea, 0xbc,
  0xfe, 0x34, 0xc9, 0x3d, 0x0d, 0xc3, 0x02, 0x3e, 0xc0, 0x16, 0x16, 0xbe,
  0x80, 0xee, 0x3f, 0x3b, 0x22, 0x84, 0x05, 0xbe, 0xb0, 0x23, 0xc6, 0xbc,
  0xc0, 0xac, 0xb5, 0xbc, 0xbd, 0xde, 0x30, 0x3e, 0x63, 0xf5, 0x1d, 0x3e,
  0xd0, 0xdd, 0x25, 0xbe, 0x55, 0x4f, 0x35, 0x3e, 0x38, 0x6e, 0xd5, 0x3c,
  0x12, 0xdd, 0x47, 0xbe, 0x00, 0x14, 0x24, 0xbe, 0x7e, 0xc4, 0xc4, 0x3d,
  0x4c, 0xe7, 0x04, 0xbe, 0xcd, 0xfc, 0x3a, 0xbe, 0xfc, 0x77, 0x9e, 0xbd,
  0x84, 0x29, 0xd3, 0xbd, 0xef, 0x2c, 0xbd, 0x3d, 0x4e, 0x0f, 0x2e, 0xbc,
  0x82, 0x21, 0x1f, 0xbe, 0x40, 0xba, 0x83, 0xbb, 0x42, 0x6a, 0x8d, 0x3d,
  0xc7, 0x67, 0xc7, 0x3d, 0xaa, 0xda, 0x5a, 0x3e, 0xc4, 0xf6, 0x57, 0xbe,
  0x15, 0x02, 0x46, 0xbe, 0x94, 0xd6, 0x20, 0x3e, 0x5f, 0x6b, 0xbd, 0x3c,
  0x24, 0x94, 0x47, 0x3e, 0xf7, 0xa4, 0x21, 0x3e, 0x39, 0xb0, 0x5e, 0xbc,
  0x06, 0x12, 0x40, 0x3e, 0xa0, 0x62, 0xd5, 0xbc, 0xe7, 0x94, 0x09, 0xbd,
  0xda, 0xa3, 0xd1, 0x3d, 0x73, 0x43, 0x97, 0xbb, 0xbe, 0xf7, 0xec, 0xbd,
  0x5d, 0xfc, 0x52, 0xbe, 0xe0, 0xa3, 0xd8, 0xbc, 0x61, 0x62, 0xc9, 0x3d,
  0xaa, 0x4e, 0x14, 0x3c, 0x8e, 0x1e, 0x06, 0xbe, 0x26, 0xe7, 0xd3, 0x3d,
  0x40, 0x2d, 0x6f, 0x3c, 0x75, 0xe5, 0x45, 0x3e, 0x6a, 0xdc, 0xea, 0x3d,
  0x38, 0x89, 0x1e, 0xbe, 0x6d, 0x19, 0x7e, 0x3e, 0xd1, 0x61, 0xd9, 0xbd,
  0x7d, 0x70, 0xa6, 0xbe, 0xda, 0x31, 0x4a, 0xbe, 0xf3, 0x8a, 0x24, 0x3d,
  0x64, 0x60, 0x05, 0xbc, 0x18, 0x93, 0x00, 0xbe, 0x74, 0x45, 0x01, 0x3d,
  0x0a, 0x89, 0xbe, 0x3d, 0x78, 0x4f, 0x83, 0x3d, 0xea, 0xe2, 0xf8, 0x3d,
  0xc1, 0x76, 0x43, 0xbe, 0x98, 0x31, 0x8a, 0xbd, 0xd2, 0x2e, 0x20, 0x3e,
  0xc0, 0x7e, 0xac, 0xbc, 0x4b, 0xf4, 0x25, 0xbe, 0x4e, 0x0a, 0xde, 0x3d,
  0x83, 0x59, 0x14, 0x3d, 0x00, 0xa0, 0xa7, 0x3e, 0xbc, 0xaf, 0x08, 0x3c,
  0x68, 0xf4, 0x0d, 0x3e, 0x58, 0xc7, 0xa4, 0xbc, 0xbf, 0x2d, 0x02, 0xbe,
  0xd7, 0x93, 0x63, 0x3e, 0xa2, 0x6b, 0x96, 0xbd, 0x7c, 0x22, 0x1d, 0xbe,
  0x5e, 0x8b, 0xa1, 0xbd, 0x0c, 0x52, 0x50, 0x3d, 0x8a, 0x58, 0xfa, 0x3d,
  0x9b, 0x8e, 0x26, 0xbe, 0xd4, 0xc3, 0xcb, 0xbd, 0x44, 0x26, 0xaf, 0xbe,
  0x49, 0x64, 0x09, 0xbe, 0x45, 0x31, 0x59, 0x3e, 0xd6, 0x2b, 0x37, 0xbd,
  0xbd, 0x0d, 0x0b, 0xbe, 0xb3, 0x56, 0x3f, 0x3e, 0xe3, 0xe3, 0x57, 0x3e,
  0xd4, 0x63, 0x5d, 0xbe, 0xc3, 0xed, 0x0d, 0x3e, 0x2d, 0xd6, 0x9d, 0xbd,
  0x08, 0xed, 0x5d, 0xbd, 0xc9, 0x3e, 0xd6, 0x3c, 0xd6, 0xa5, 0xb5, 0x3c,
  0xdb, 0xc1, 0x86, 0x3e, 0xa3, 0x3b, 0x4a, 0x3c, 0x7a, 0xe3, 0x11, 0x3e,
  0xb5, 0xdf, 0xd1, 0xbe, 0x7a, 0xf8, 0x11, 0x3e, 0x98, 0x3c, 0x9e, 0xbd,
  0xf9, 0x1b, 0x01, 0x3e, 0x45, 0x0a, 0x69, 0x3e, 0x28, 0xc7, 0x21, 0x3e,
  0x9b, 0x69, 0x1f, 0x3e, 0x19, 0x4e, 0x4b, 0xbe, 0xd8, 0xb9, 0xd2, 0x3c,
  0xc1, 0x13, 0x1f, 0xbe, 0xdc, 0x73, 0x65, 0x3d, 0x88, 0xc5, 0x31, 0x3d,
  0xd0, 0x02, 0x1e, 0xbd, 0xf4, 0xa8, 0x65, 0x3d, 0x9c, 0xfb, 0x6e, 0x3d,
  0x7d, 0x10, 0x43, 0x3e, 0x05, 0x28, 0x31, 0x3e, 0xf8, 0x38, 0xf4, 0x3d,
  0xc0, 0x65, 0x7f, 0x3c, 0x52, 0x36, 0xac, 0xbe, 0x8a, 0xe4, 0x8f, 0xbd,
  0xbc, 0x1b, 0x6b, 0xbd, 0x28, 0xa5, 0x2d, 0xbd, 0x44, 0x0f, 0x04, 0x3d,
  0x3b, 0xbc, 0x51, 0x3e, 0x63, 0x46, 0x1a, 0xbe, 0x29, 0x63, 0x46, 0x3e,
  0xd9, 0x73, 0x2c, 0x3d, 0xec, 0xa6, 0x31, 0xbd, 0xa8, 0xde, 0x3b, 0xbd,
  0xec, 0x59, 0x01, 0xbe, 0xfc, 0x8a, 0xda, 0xbd, 0x6a, 0x81, 0xea, 0x3d,
  0x26, 0x69, 0x83, 0x3d, 0xfb, 0x14, 0xe3, 0x3d, 0xc5, 0xa7, 0xb3, 0x3d,
  0x4b, 0x96, 0x3f, 0xbe, 0xa0, 0x3b, 0x45, 0xbe, 0xb6, 0xa8, 0x16, 0xbe,
  0xc8, 0x97, 0x6a, 0x3e, 0x5f, 0xc5, 0x41, 0x3e, 0xb5, 0xc8, 0x5e, 0xbe,
  0xec, 0xc3, 0x31, 0x3d, 0xfe, 0x89, 0xc7, 0xbd, 0x4e, 0x32, 0x40, 0xbe,
  0x5c, 0x67, 0x3b, 0xbd, 0x3c, 0x6a, 0x43, 0x3d, 0x00, 0xa6, 0x19, 0xbe,
  0x21, 0x8b, 0x57, 0xbe, 0x58, 0x61, 0xb0, 0xbd, 0xd6, 0x42, 0xfa, 0x3d,
  0x68, 0x10, 0xac, 0xbc, 0x78, 0xe8, 0xe9, 0x3c, 0x71, 0x02, 0x2e, 0x3e,
  0x1c, 0x0f, 0x7f, 0x3d, 0xcc, 0xc1, 0x0c, 0xbe, 0x24, 0xa5, 0x16, 0xbe,
  0x48, 0x2f, 0xf3, 0xbc, 0x36, 0xb0, 0xfb, 0xbd, 0x49, 0xd2, 0x23, 0x3e,
  0xbf, 0x56, 0x48, 0xbe, 0x56, 0x19, 0x91, 0x3d, 0x40, 0x59, 0x64, 0xbe,
  0xbe, 0xb6, 0xd9, 0x3d, 0x80, 0xbf, 0xfc, 0xbc, 0x99, 0x3d, 0x4c, 0x3e,
  0x5a, 0xca, 0x17, 0xbe, 0xe4, 0x72, 0x35, 0xbe, 0x2e, 0x55, 0xb5, 0x3d,
  0x48, 0xdd, 0x37, 0xbe, 0x32, 0x9f, 0x8e, 0x3d, 0xc0, 0xb8, 0x9f, 0xbc,
  0xfe, 0x8e, 0x95, 0x3d, 0xbd, 0x41, 0xe2, 0xbd, 0x19, 0x81, 0x3e, 0x3e,
  0x0f, 0x27, 0x57, 0x3e, 0x4c, 0xa1, 0xd5, 0xbd, 0x7e, 0x3d, 0x63, 0xbe,
  0xb6, 0x3c, 0xc7, 0x3d, 0x48, 0x89, 0xea, 0x3c, 0x19, 0xfa, 0x3b, 0x3e,
  0x54, 0x07, 0xd6, 0xbd, 0xb8, 0xcc, 0x00, 0xbd, 0x20, 0xb4, 0x65, 0xbd,
  0xd2, 0x94, 0x0c, 0xbe, 0xa6, 0x56, 0x0a, 0xbe, 0x66, 0xbc, 0xa6, 0x3d,
  0xb6, 0x70, 0x93, 0xbd, 0xbc, 0xdc, 0x02, 0xbe, 0x9b, 0x24, 0x33, 0xbe,
  0x32, 0x65, 0x51, 0xbe, 0x10, 0x97, 0x71, 0xbc, 0x40, 0x29, 0x1f, 0x3b,
  0xc1, 0x71, 0x67, 0x3e, 0xe6, 0xbc, 0x97, 0xbd, 0xdc, 0xc5, 0x7a, 0x3d,
  0xdb, 0xe1, 0x5e, 0xbe, 0x10, 0x6c, 0x10, 0xbd, 0x45, 0xe4, 0x5b, 0x3e,
  0xe0, 0xbe, 0x4f, 0xbd, 0x42, 0x40, 0xd2, 0xbd, 0x3f, 0xf1, 0x59, 0x3e,
  0xf1, 0x2e, 0x60, 0xbe, 0x3d, 0x2b, 0x26, 0x3e, 0x28, 0x87, 0x58, 0xbe,
  0x18, 0x1f, 0x0c, 0xbd, 0x4a, 0x75, 0xcc, 0x3d, 0xf7, 0xce, 0x43, 0x3e,
  0x7a, 0x90, 0xf2, 0x3d, 0x7a, 0xa1, 0xd1, 0x3d, 0xaa, 0x30, 0xc8, 0x3d,
  0x6d, 0x16, 0x56, 0x3e, 0x25, 0x68, 0xa8, 0xbc, 0x49, 0x91, 0x4b, 0x3e,
  0x08, 0xdd, 0x85, 0xbd, 0x91, 0x3f, 0xbe, 0xbc, 0x1a, 0x29, 0xd9, 0x3d,
  0x37, 0x9d, 0x28, 0xbe, 0x16, 0x8f, 0xb0, 0xbd, 0x9a, 0xd9, 0x38, 0xbd,
  0xba, 0x22, 0x14, 0xbd, 0x3e, 0x4e, 0xd6, 0x3d, 0x78, 0xab, 0x39, 0xbe,
  0x32, 0xe9, 0x47, 0xbe, 0xdb, 0xbf, 0x04, 0x3d, 0xbc, 0x97, 0xf2, 0x3b,
  0x96, 0x02, 0x8d, 0xbc, 0x64, 0x44, 0x3b, 0x3e, 0x19, 0xf3, 0x28, 0xbe,
  0x67, 0x9b, 0x0c, 0xbd, 0x20, 0x99, 0xa1, 0xbb, 0x17, 0x12, 0x06, 0x3e,
  0x39, 0x87, 0x4d, 0x3e, 0xb7, 0xf0, 0x71, 0x3c, 0x8b, 0x3d, 0x46, 0x3e,
  0x76, 0x96, 0x4f, 0xbe, 0xba, 0xd8, 0x57, 0xbe, 0x5d, 0x1f, 0x1f, 0xbe,
  0x18, 0xe3, 0x0b, 0x3e, 0xd1, 0x37, 0x91, 0xbe, 0xd4, 0x85, 0xd5, 0xbd,
  0xcc, 0xd7, 0x06, 0xbe, 0x5c, 0x40, 0x49, 0x3d, 0xf2, 0xa9, 0xea, 0x3d,
  0x00, 0x9c, 0x95, 0xbb, 0x53, 0x5c, 0x0a, 0x3e, 0xb5, 0x32, 0x27, 0xbe,
  0xa3, 0xa1, 0xa0, 0xbe, 0xbc, 0x10, 0x4f, 0xbd, 0x2d, 0xb1, 0x87, 0xbe,
  0x26, 0x1b, 0x9b, 0xbe, 0x22, 0x15, 0xd2, 0x3d, 0xdc, 0x50, 0xaf, 0xbd,
  0x31, 0x26, 0x18, 0xbe, 0x07, 0x03, 0x1b, 0xbe, 0x55, 0x43, 0xbe, 0xbd,
  0x7f, 0xdf, 0x19, 0x3e, 0x37, 0x66, 0x39, 0xbe, 0xa0, 0x7c, 0x72, 0x3d,
  0x59, 0x37, 0x0a, 0x3e, 0xfe, 0x3d, 0x63, 0x3d, 0x26, 0xf9, 0x54, 0xbe,
  0x28, 0x2a, 0x6c, 0x3d, 0x30, 0xeb, 0x41, 0xbc, 0x36, 0xc5, 0x99, 0x3d,
  0xff, 0x9e, 0x96, 0xbe, 0x0f, 0x38, 0x61, 0xbe, 0x2a, 0x03, 0x02, 0x3d,
  0xe9, 0xca, 0x39, 0x3c, 0x9f, 0x9c, 0x2f, 0xbe, 0x76, 0x7e, 0xa4, 0x3d,
  0xe8, 0x38, 0xe2, 0xbc, 0x23, 0xa3, 0xf9, 0xbd, 0x39, 0xd1, 0x37, 0x3e,
  0x00, 0xb5, 0xce, 0x3b, 0x11, 0x93, 0x38, 0xbe, 0x2c, 0xee, 0x1e, 0xbc,
  0x2e, 0xdd, 0x81, 0x3d, 0x1f, 0x6c, 0x51, 0x3e, 0xe0, 0x3d, 0xfe, 0x3d,
  0x9e, 0xb2, 0x61, 0xbc, 0xec, 0xc9, 0x5d, 0x3d, 0x9a, 0x71, 0xab, 0x3d,
  0x85, 0xe7, 0x29, 0xbe, 0x90, 0x23, 0xc0, 0xbd, 0x37, 0xfa, 0xdf, 0x3d,
  0x88, 0xa0, 0x89, 0xbc, 0x0d, 0xe5, 0xd9, 0xbd, 0xe0, 0x29, 0x3e, 0x3e,
  0xd1, 0xeb, 0x36, 0x3c, 0x7f, 0xa7, 0xdc, 0x3d, 0x7d, 0xa4, 0x11, 0xbd,
  0x63, 0x67, 0x26, 0x3d, 0x9f, 0xcf, 0xd1, 0xbd, 0x23, 0xaa, 0xf3, 0xbd,
  0x6c, 0xdf, 0x3f, 0xbd, 0xba, 0x38, 0xc4, 0x3d, 0xe3, 0x30, 0x20, 0x3e,
  0x95, 0xfb, 0x33, 0xbe, 0xb1, 0x12, 0x60, 0xbe, 0x07, 0x63, 0x2f, 0x3e,
  0x75, 0x7f, 0x69, 0xbe, 0x8c, 0xc2, 0xa0, 0xbd, 0x67, 0xb6, 0xb8, 0xbd,
  0x98, 0x1a, 0x8b, 0x3c, 0xe0, 0x7f, 0xc2, 0x3b, 0x38, 0x78, 0x03, 0xbe,
  0xf0, 0xe2, 0x0b, 0xbd, 0xc0, 0x0f, 0x17, 0xbd, 0x11, 0xcc, 0x51, 0xbe,
  0x04, 0x11, 0x9c, 0x3c, 0x05, 0x88, 0xbe, 0xbd, 0x3d, 0x37, 0xe3, 0xbd,
  0xa9, 0x63, 0x59, 0x3e, 0xe5, 0x38, 0x38, 0x3e, 0xb9, 0xbb, 0x0b, 0x3e,
  0x86, 0x1d, 0xfe, 0x3d, 0xaf, 0xff, 0x0c, 0x3e, 0xba, 0x93, 0x50, 0x3d,
  0xb8, 0xa7, 0x30, 0xbe, 0xb1, 0xb8, 0x0f, 0x3e, 0x79, 0x46, 0x21, 0x3e,
  0xc5, 0x05, 0x02, 0x3e, 0x59, 0x3f, 0x07, 0x3e, 0x1f, 0x97, 0x2c, 0xbc,
  0xb4, 0x85, 0x37, 0x3d, 0x64, 0xee, 0x0b, 0x3d, 0x4e, 0xdf, 0x31, 0xbe,
  0xea, 0x5b, 0x00, 0x3e, 0x33, 0x6f, 0x2b, 0xbe, 0x9e, 0x26, 0x83, 0x3d,
  0x84, 0xf9, 0xb7, 0x3d, 0x6b, 0xa7, 0x31, 0xbe, 0x2f, 0xa4, 0x00, 0x3e,
  0xa4, 0xcd, 0x56, 0x3d, 0xe9, 0xe9, 0x63, 0x3e, 0x32, 0x10, 0x4e, 0xbe,
  0x38, 0x2f, 0xcc, 0xbc, 0x13, 0x02, 0x13, 0x3e, 0x91, 0x65, 0x17, 0x3e,
  0xdc, 0x1c, 0x2f, 0x3e, 0x59, 0xe6, 0xdc, 0xbd, 0x8f, 0x8f, 0x2e, 0x3e,
  0x4f, 0xc2, 0x8b, 0x3d, 0x13, 0x1b, 0xa4, 0x3d, 0x7a, 0xdb, 0x92, 0x3d,
  0x1d, 0x28, 0x3c, 0xbe, 0x6d, 0xe8, 0xbb, 0xbd, 0x92, 0x51, 0x8c, 0xbd,
  0xc9, 0x55, 0x10, 0x3d, 0x3f, 0xf4, 0x02, 0x3e, 0x73, 0xc1, 0x01, 0x3d,
  0x67, 0x6b, 0xca, 0x3d, 0x2f, 0x7b, 0x18, 0x3d, 0x1b, 0x0f, 0x4b, 0x3d,
  0x66, 0x53, 0xa5, 0xbd, 0x9e, 0x52, 0x87, 0xbd, 0xc8, 0xfe, 0x87, 0xbd,
  0x8c, 0x3b, 0x0c, 0xbe, 0xf1, 0x45, 0x98, 0xbc, 0xa6, 0xf9, 0xd7, 0xbd,
  0xa4, 0x58, 0x32, 0xbe, 0x18, 0xfe, 0x4e, 0xbd, 0x8e, 0xef, 0xbb, 0x3d,
  0xd4, 0x0d, 0x67, 0xbe, 0x69, 0xd4, 0x10, 0xbd, 0x67, 0x42, 0xf6, 0xbd,
  0xd8, 0x3d, 0x34, 0x3d, 0x05, 0xeb, 0xdf, 0xbd, 0x43, 0xb1, 0x62, 0xbe,
  0xe8, 0x39, 0x8f, 0xbc, 0x8d, 0x1f, 0xe8, 0xbd, 0x5a, 0xa4, 0xbc, 0x3d,
  0x52, 0x94, 0xa1, 0xbd, 0xfe, 0xf4, 0x33, 0x3e, 0x1c, 0xbf, 0x8c, 0x3d,
  0x7a, 0x68, 0xbe, 0x3d, 0x2a, 0x63, 0x42, 0x3d, 0x80, 0xfc, 0x3d, 0x3e,
  0x2c, 0x32, 0x2e, 0xbe, 0x95, 0x7d, 0x69, 0x3e, 0x9a, 0xc9, 0x83, 0x3c,
  0xe9, 0x50, 0x56, 0xbd, 0xbc, 0xa1, 0x3b, 0xbe, 0x10, 0xec, 0x2d, 0xbc,
  0x3f, 0x2f, 0x68, 0x3e, 0x68, 0x0a, 0x66, 0x3d, 0x20, 0x07, 0x5f, 0xbc,
  0x05, 0x34, 0x05, 0x3e, 0xd2, 0xf8, 0xfb, 0x3d, 0xd2, 0xf8, 0x34, 0xbc,
  0x46, 0x04, 0x28, 0xbd, 0xd2, 0xdd, 0x35, 0x3e, 0x7b, 0x44, 0xe5, 0x3a,
  0xe0, 0x1f, 0x65, 0x3c, 0xeb, 0x8a, 0x64, 0xbe, 0x57, 0x65, 0xbf, 0x3d,
  0x3a, 0x10, 0xab, 0x3d, 0xae, 0x50, 0x8d, 0x3d, 0x42, 0xa7, 0x47, 0xbe,
  0xbd, 0x80, 0x55, 0x3e, 0xe2, 0x4d, 0xa4, 0xbd, 0xd2, 0xb8, 0xc5, 0x3d,
  0x36, 0x5c, 0x95, 0x3d, 0x00, 0xa1, 0xc1, 0x3b, 0xa9, 0xb7, 0x4c, 0x3e,
  0xe0, 0x26, 0xb1, 0xbb, 0x3a, 0x95, 0xaf, 0xbd, 0x30, 0xb8, 0x5d, 0x3c,
  0x7a, 0xd4, 0x11, 0xbe, 0x00, 0xad, 0xbd, 0xba, 0x4a, 0x84, 0xa4, 0x3d,
  0x0c, 0x23, 0x0e, 0x3d, 0xa5, 0x49, 0xea, 0xbd, 0x76, 0x15, 0x49, 0xbe,
  0xbe, 0x38, 0xb1, 0xbd, 0xfc, 0xbe, 0x7c, 0x3d, 0x2c, 0xcf, 0x43, 0x3d,
  0x10, 0x0f, 0x98, 0xbd, 0xc6, 0xe4, 0x8a, 0xbd, 0x12, 0x34, 0xd4, 0x3d,
  0x48, 0x1d, 0xec, 0xbd, 0x34, 0xec, 0x08, 0x3d, 0x2e, 0x9c, 0xbd, 0xbd,
  0x8c, 0x1e, 0x38, 0xbd, 0xc8, 0x5a, 0xf9, 0x3c, 0xca, 0xcb, 0x8d, 0x3d,
  0x90, 0x2e, 0x81, 0xbd, 0x40, 0xd6, 0xb2, 0xbb, 0x89, 0x3a, 0x64, 0x3e,
  0x1f, 0x72, 0x36, 0x3e, 0x32, 0xe8, 0xd2, 0x3d, 0x06, 0xec, 0xd7, 0x3d,
  0xc6, 0x80, 0x81, 0x3d, 0x47, 0xd2, 0x65, 0x3e, 0xaa, 0x95, 0xa2, 0x3d,
  0x33, 0x6b, 0x65, 0x3e, 0x17, 0xfa, 0x4b, 0x3e, 0x63, 0xe5, 0x4c, 0x3e,
  0x40, 0x27, 0x3e, 0xbc, 0xcb, 0xa3, 0xfa, 0xbd, 0xde, 0xd0, 0xb4, 0x3d,
  0x32, 0x7b, 0xa5, 0x3d, 0x64, 0x1b, 0x13, 0xbd, 0xb5, 0x85, 0x05, 0x3e,
  0x38, 0xbd, 0xdb, 0x3c, 0x62, 0x55, 0xde, 0xbd, 0xed, 0x82, 0x5b, 0xbe,
  0x1b, 0x5b, 0x31, 0x3e, 0xad, 0xcd, 0x05, 0x3e, 0x98, 0xef, 0xfd, 0xbc,
  0xa1, 0x26, 0x35, 0x3e, 0x7b, 0x18, 0x07, 0x3e, 0xa5, 0xce, 0xf1, 0xbd,
  0xd6, 0x4d, 0x93, 0x3d, 0x00, 0xc2, 0x91, 0xba, 0x08, 0xba, 0x2b, 0xbe,
  0xda, 0x1e, 0xa9, 0x3d, 0x4a, 0xfa, 0x36, 0xbe, 0x8a, 0xf4, 0xe1, 0x3d,
  0x40, 0x04, 0xe7, 0xbd, 0x48, 0xfb, 0xb5, 0xbd, 0xc0, 0xbd, 0xaf, 0x3b,
  0x98, 0x4b, 0xa0, 0x3c, 0x98, 0x18, 0x30, 0xbe, 0xec, 0xc4, 0x4a, 0xbd,
  0xd6, 0x7b, 0x9a, 0x3d, 0xf4, 0x2c, 0x40, 0x3d, 0xf9, 0x68, 0x5a, 0xbe,
  0x94, 0x64, 0x61, 0xbe, 0x60, 0x4b, 0x0f, 0xbe, 0xc0, 0x70, 0x50, 0xbe,
  0x59, 0xa4, 0x35, 0x3e, 0x2b, 0x32, 0x35, 0x3e, 0xbb, 0x87, 0x2b, 0x3e,
  0xb9, 0xbd, 0x0d, 0x3e, 0xe8, 0x10, 0x89, 0xbd, 0x74, 0x25, 0x9b, 0xbd,
  0x1e, 0xa3, 0x59, 0xbe, 0x54, 0xc5, 0x42, 0xbe, 0xf7, 0xa9, 0x5d, 0xbe,
  0x3b, 0x5e, 0x5c, 0xbe, 0xcc, 0xb5, 0x07, 0xbd, 0xa4, 0x6c, 0x3f, 0x3d,
  0x52, 0x0c, 0x8d, 0x3d, 0x9a, 0x8c, 0xf3, 0xbd, 0xa2, 0x8d, 0xa1, 0xbd,
  0x1c, 0x81, 0x51, 0x3d, 0x38, 0x7a, 0x5d, 0xbe, 0x81, 0x7e, 0x51, 0x3e,
  0x9c, 0xf8, 0xe3, 0xbd, 0x7c, 0x90, 0x1a, 0x3d, 0x8b, 0xad, 0x1e, 0x3e,
  0x89, 0x23, 0x18, 0x3e, 0x96, 0xbb, 0x8c, 0xbd, 0xfa, 0x12, 0xd7, 0x3d,
  0x9c, 0xf9, 0x1e, 0xbd, 0xa6, 0xb3, 0x83, 0x3d, 0x7c, 0xbb, 0xf4, 0xbd,
  0x80, 0xd0, 0x29, 0xbe, 0x2e, 0xf8, 0x23, 0xbe, 0x5c, 0xfe, 0x4d, 0xbe,
  0xfc, 0xef, 0x1e, 0xbe, 0xfe, 0x0d, 0x48, 0xbe, 0xd1, 0x0e, 0x1d, 0x3e,
  0xca, 0x24, 0xf6, 0x3d, 0x66, 0x88, 0x8b, 0x3d, 0xa4, 0xb1, 0x27, 0xbd,
  0x40, 0xda, 0x78, 0xbc, 0xd4, 0x13, 0x67, 0x3d, 0xde, 0x3d, 0xb4, 0xbd,
  0x92, 0x81, 0x9a, 0x3d, 0x7b, 0xbf, 0xe6, 0xbd, 0x6b, 0x13, 0x68, 0xbe,
  0x14, 0xa2, 0x16, 0x3d, 0x50, 0x74, 0xa5, 0xbd, 0xbd, 0x84, 0x4f, 0x3e,
  0xa4, 0xc7, 0x3e, 0x3d, 0xa8, 0xb3, 0x39, 0xbe, 0x1a, 0x36, 0x0b, 0xbe,
  0xf0, 0x80, 0x77, 0xbc, 0x91, 0x97, 0x5f, 0x3e, 0xbd, 0x4a, 0xe4, 0xbd,
  0x00, 0xaa, 0x0c, 0x3c, 0x09, 0xfb, 0x4a, 0x3e, 0xae, 0x3b, 0xe0, 0x3d,
  0x75, 0x4a, 0x63, 0x3e, 0xc9, 0xd3, 0x64, 0xbe, 0xcc, 0x4e, 0x63, 0x3d,
  0x5a, 0x2e, 0x4b, 0xbe, 0x25, 0xad, 0x2a, 0x3e, 0xeb, 0x3d, 0x3f, 0xbe,
  0x8a, 0xf8, 0x82, 0xbe, 0x8c, 0x0a, 0x0b, 0x3d, 0x60, 0xd8, 0x5e, 0xbc,
  0xc3, 0x18, 0x86, 0x3d, 0x38, 0x0e, 0x65, 0xbd, 0x46, 0x2f, 0x4a, 0xbe,
  0x54, 0x1d, 0x02, 0x3d, 0x38, 0x35, 0xc0, 0x3d, 0xb6, 0x7c, 0x4c, 0x3e,
  0x13, 0xb2, 0xfb, 0x3d, 0xc3, 0x76, 0x39, 0xbe, 0xeb, 0x66, 0xba, 0xbd,
  0xd4, 0x9b, 0x7c, 0x3c, 0x4d, 0x78, 0x3b, 0x3d, 0x87, 0x2d, 0xc4, 0xb9,
  0xb5, 0x6f, 0x28, 0xbd, 0x72, 0x5b, 0x78, 0xbe, 0xc6, 0xec, 0x31, 0x3e,
  0x12, 0x47, 0x14, 0xbe, 0xec, 0x48, 0xe2, 0x3d, 0x3c, 0xae, 0x62, 0x3d,
  0x0c, 0x54, 0x79, 0x3e, 0xb8, 0x6a, 0x34, 0xbe, 0xe8, 0x80, 0xc7, 0xbd,
  0x16, 0x89, 0xe7, 0x3d, 0xa8, 0x15, 0xaf, 0x3d, 0xae, 0xb9, 0x57, 0xbe,
  0xae, 0x05, 0x8c, 0x3e, 0xa7, 0x50, 0x0c, 0xbe, 0x18, 0x13, 0xc3, 0x3c,
  0x6f, 0xec, 0x02, 0xbe, 0x81, 0x7b, 0x65, 0xbe, 0x06, 0xf2, 0xfa, 0x3d,
  0xed, 0x34, 0x30, 0xbd, 0xe4, 0xa3, 0x1e, 0xbe, 0x06, 0x7f, 0x82, 0x3d,
  0x80, 0xf7, 0x2d, 0xbe, 0x5f, 0xe2, 0xdd, 0x3d, 0x21, 0xc2, 0x2f, 0x3e,
  0xc5, 0xff, 0x33, 0x3e, 0x9b, 0x38, 0x4d, 0x3e, 0x87, 0xc7, 0xbc, 0xbb,
  0x43, 0xbd, 0x53, 0x3e, 0x77, 0x0c, 0xdc, 0x39, 0x70, 0xb3, 0x64, 0xbe,
  0x95, 0x57, 0x34, 0x3e, 0x1c, 0x11, 0x14, 0x3d, 0x8a, 0x66, 0x1c, 0xbe,
  0x94, 0x8a, 0x6b, 0x3e, 0x68, 0xa4, 0xc2, 0x3c, 0xbe, 0xac, 0xf9, 0xbb,
  0x3b, 0x2d, 0x27, 0x3e, 0xfb, 0x1d, 0x8e, 0x3c, 0xbb, 0x0f, 0xd6, 0xbd,
  0x39, 0x8a, 0x46, 0xbe, 0x9f, 0x34, 0xa9, 0xbd, 0x69, 0xb4, 0x7a, 0xbc,
  0xd5, 0x83, 0x44, 0x3e, 0xb0, 0x48, 0xd0, 0xbd, 0x15, 0xc4, 0x46, 0x3e,
  0x84, 0x14, 0x17, 0xbd, 0xe2, 0xb9, 0x9e, 0xbd, 0x76, 0xf4, 0x85, 0x3d,
  0xc0, 0x25, 0x12, 0xbe, 0x13, 0x58, 0x77, 0xbd, 0xc0, 0xd3, 0x5e, 0xbc,
  0xf4, 0x48, 0x7a, 0xbd, 0xf8, 0x3c, 0xa7, 0xbd, 0xc7, 0x4a, 0x18, 0x3c,
  0xbb, 0xaf, 0xf0, 0xbd, 0xc3, 0xf3, 0x14, 0xbe, 0x55, 0x7a, 0x20, 0xbd,
  0x8d, 0x81, 0xd8, 0xbd, 0x4d, 0x0f, 0x22, 0xbe, 0xfe, 0x8f, 0x28, 0xbe,
  0x24, 0xe6, 0xbf, 0x3d, 0xde, 0x2d, 0x15, 0xbe, 0x49, 0x71, 0x12, 0x3e,
  0x79, 0xcc, 0xab, 0xbd, 0x2d, 0xdf, 0x58, 0x3d, 0x00, 0xbc, 0x3c, 0xbe,
  0x96, 0xab, 0x28, 0xbe, 0x9a, 0xdc, 0x05, 0xbe, 0xe8, 0x1f, 0x1f, 0x3e,
  0xbf, 0xae, 0x2c, 0x3e, 0xf9, 0x8a, 0xb9, 0x3d, 0xa8, 0x3d, 0x6e, 0xbd,
  0x42, 0xd8, 0xec, 0x3d, 0x78, 0x01, 0x28, 0xbe, 0xb3, 0xe3, 0x19, 0x3e,
  0xd8, 0x1f, 0x28, 0xbc, 0xd3, 0x5a, 0x07, 0xbe, 0x21, 0xa5, 0x4f, 0x3e,
  0xa7, 0xec, 0x5d, 0x3e, 0x38, 0xcb, 0x0f, 0xbe, 0x20, 0x47, 0xa8, 0x3c,
  0xd2, 0xc9, 0xb3, 0x3d, 0x17, 0x7d, 0x4b, 0xbe, 0x88, 0x6c, 0xab, 0xbd,
  0xb5, 0x60, 0x07, 0x3c, 0x68, 0xf3, 0xea, 0x3c, 0xc9, 0x59, 0x2e, 0x3e,
  0xe3, 0xcf, 0xe1, 0x3d, 0x0a, 0xb9, 0xd2, 0x3d, 0x00, 0xf3, 0x62, 0xba,
  0x07, 0x48, 0x2a, 0x3e, 0x75, 0x79, 0x8f, 0xbc, 0xd2, 0x87, 0x22, 0x3e,
  0x24, 0xfe, 0xe9, 0xbd, 0x8f, 0xa9, 0xf9, 0xbd, 0xd1, 0xc7, 0x5d, 0x3e,
  0xf8, 0x3c, 0x14, 0xbd, 0x8f, 0xd0, 0x0a, 0x3e, 0x35, 0x0d, 0x2c, 0x3e,
  0xc9, 0x12, 0x72, 0xbe, 0x90, 0x95, 0x40, 0xbe, 0x11, 0xda, 0xbf, 0x3d,
  0xd1, 0xba, 0x26, 0x3e, 0xfc, 0xc5, 0x7e, 0x3d, 0xb3, 0x8e, 0x2a, 0xbe,
  0xba, 0xb1, 0x82, 0xbd, 0x69, 0xfe, 0x1b, 0xbe, 0x31, 0x02, 0x4a, 0x3e,
  0x8e, 0xf5, 0x82, 0xbd, 0x1b, 0xfa, 0x21, 0x3e, 0xd9, 0x61, 0x56, 0xbe,
  0x71, 0xf0, 0x5d, 0x3e, 0x0c, 0xc0, 0xa0, 0xbd, 0x56, 0x29, 0x41, 0xbe,
  0x00, 0x43, 0x0c, 0x3c, 0xdd, 0x84, 0x42, 0x3e, 0x70, 0x23, 0x12, 0xbd,
  0x93, 0x08, 0x80, 0x3d, 0xf0, 0x47, 0x5a, 0xbe, 0x58, 0x40, 0x2a, 0xbd,
  0xb7, 0x48, 0x73, 0xbe, 0xa8, 0x12, 0xb8, 0x3c, 0x1f, 0xe8, 0x07, 0xbc,
  0xc0, 0xf1, 0xe6, 0xbb, 0x53, 0x43, 0x3f, 0xbd, 0xdc, 0xab, 0x54, 0x3e,
  0xde, 0x0b, 0xb3, 0xbc, 0xf9, 0x1c, 0xab, 0x3c, 0xd9, 0xcd, 0x57, 0xbe,
  0x7a, 0x3a, 0x0a, 0x3e, 0x7b, 0x58, 0x2c, 0x3e, 0x5f, 0x13, 0x33, 0x3e,
  0xf6, 0x34, 0xab, 0xbb, 0x95, 0x96, 0x4b, 0x3e, 0xff, 0x01, 0x32, 0x3e,
  0xe4, 0xbc, 0x71, 0x3d, 0x4a, 0x52, 0xd7, 0xbd, 0x59, 0x78, 0x55, 0x3e,
  0x6c, 0xb6, 0xcb, 0xbd, 0x24, 0x02, 0x56, 0xbe, 0x41, 0x0f, 0x24, 0xbe,
  0x61, 0xe4, 0x11, 0xbe, 0x1c, 0x31, 0xd8, 0xbd, 0x96, 0xb2, 0x93, 0x3d,
  0x80, 0x61, 0x44, 0x3c, 0xf8, 0x91, 0xd4, 0x3c, 0x5c, 0x13, 0x6f, 0xbe,
  0x18, 0xf5, 0x0d, 0x3e, 0x14, 0x8b, 0x27, 0xbe, 0x5b, 0x79, 0x61, 0xbe,
  0x1f, 0x3f, 0x55, 0x3e, 0xce, 0x07, 0xcf, 0x3d, 0x66, 0x23, 0xd8, 0x3d,
  0x2d, 0x3f, 0x35, 0x3e, 0x20, 0x03, 0x20, 0xbe, 0x46, 0x80, 0x1e, 0x3d,
  0x3a, 0xe0, 0x74, 0xbe, 0xd6, 0x2f, 0xbb, 0x3d, 0x2c, 0x6b, 0x2d, 0xbe,
  0xc3, 0x88, 0x59, 0xbe, 0x6b, 0x85, 0x0d, 0x3e, 0xd9, 0x05, 0xdd, 0xbd,
  0x56, 0x07, 0xc7, 0x3d, 0xc4, 0x45, 0x08, 0x3e, 0xb8, 0x98, 0x45, 0x3e,
  0xff, 0xf4, 0x8f, 0xbd, 0x8b, 0x6c, 0xba, 0xbd, 0xaa, 0x29, 0xa9, 0xbd,
  0x24, 0xc2, 0x10, 0xbe, 0x20, 0x20, 0x59, 0x3b, 0x4c, 0x70, 0x5d, 0x3d,
  0xf6, 0xeb, 0x98, 0x3d, 0x23, 0x75, 0x3f, 0x3e, 0x06, 0x93, 0xc9, 0x3d,
  0xb4, 0xa1, 0x52, 0x3d, 0x58, 0x52, 0xcd, 0x3c, 0x7f, 0x8c, 0x4b, 0x3e,
  0x70, 0xee, 0x41, 0x3e, 0x00, 0xf4, 0x10, 0xbc, 0xbc, 0xc2, 0x31, 0x3d,
  0xc1, 0xfe, 0x55, 0xbe, 0xe6, 0x44, 0x89, 0x3d, 0x1a, 0xf3, 0x9e, 0x3d,
  0xbe, 0xcc, 0x3f, 0xbe, 0x6e, 0xf8, 0xee, 0xbd, 0x70, 0xc3, 0x99, 0xbd,
  0xff, 0x22, 0x8b, 0xbd, 0x28, 0xb7, 0x52, 0xbd, 0xf1, 0x53, 0x91, 0xbd,
  0xdd, 0x16, 0x55, 0xbc, 0xa2, 0x80, 0x28, 0xbe, 0x99, 0x15, 0x43, 0x3e,
  0x26, 0x07, 0x13, 0x3e, 0x73, 0x4a, 0x3a, 0xbc, 0x7d, 0x85, 0x9a, 0x3d,
  0x28, 0x7c, 0x15, 0xbd, 0x04, 0xe1, 0x37, 0xbe, 0x57, 0xfc, 0x24, 0xbe,
  0xf1, 0xe0, 0x06, 0x3e, 0xb8, 0xca, 0x3e, 0xbd, 0x33, 0x02, 0x18, 0x3e,
  0x13, 0x0c, 0x09, 0xbe, 0x94, 0xa8, 0x8c, 0x3d, 0xc3, 0xe7, 0x13, 0xbe,
  0xb2, 0x9e, 0x37, 0x3e, 0xb8, 0x74, 0x8a, 0x3c, 0x1e, 0xb2, 0xed, 0x3d,
  0x56, 0x6c, 0xd0, 0x3d, 0x00, 0xd9, 0x57, 0xbe, 0xb8, 0x27, 0x9d, 0x3c,
  0x5a, 0x29, 0x66, 0xbe, 0x1a, 0x64, 0xef, 0xbd, 0x4e, 0xf4, 0x11, 0xbe,
  0x90, 0x14, 0x19, 0xbc, 0x9f, 0xe4, 0x8f, 0x3d, 0x63, 0x54, 0xfe, 0xbd,
  0x93, 0x2f, 0x5e, 0x3e, 0x5d, 0x54, 0x11, 0x3e, 0x14, 0xc8, 0x52, 0xbd,
  0xbf, 0xba, 0xe7, 0xbc, 0x5a, 0xa5, 0x20, 0xbe, 0x5f, 0xcc, 0x02, 0x3e,
  0xc5, 0x15, 0x40, 0x3e, 0xc0, 0x7a, 0x25, 0xbe, 0x46, 0xba, 0xa5, 0x3d,
  0x1f, 0x63, 0xf0, 0x3d, 0x64, 0x37, 0x0d, 0xbe, 0x57, 0x92, 0x14, 0xbc,
  0x91, 0x16, 0x53, 0xba, 0xdc, 0x2f, 0xe4, 0x3d, 0x6e, 0xb3, 0xd4, 0x3d,
  0x0e, 0xe3, 0x16, 0xbe, 0x18, 0xee, 0x23, 0xbe, 0x1f, 0x11, 0x5f, 0xbe,
  0x26, 0x1b, 0xb1, 0x3d, 0xea, 0x36, 0xce, 0xbd, 0xe6, 0x14, 0xa1, 0x3d,
  0x91, 0x5d, 0x01, 0x3e, 0x42, 0x7a, 0x8f, 0x3d, 0x8f, 0xdf, 0x27, 0x3e,
  0x6d, 0x51, 0x37, 0x3e, 0x3c, 0xd1, 0xc1, 0xbd, 0xf4, 0x50, 0xf0, 0xbd,
  0x88, 0x7c, 0xb7, 0xbc, 0x1c, 0xce, 0xb9, 0xbd, 0xb8, 0xf0, 0xb6, 0x3c,
  0x02, 0x1f, 0x17, 0xbe, 0x46, 0x7e, 0x01, 0xbe, 0xbe, 0x3a, 0xde, 0xbd,
  0x73, 0xbd, 0x12, 0xbe, 0xe8, 0x0b, 0x96, 0xbd, 0x00, 0x4c, 0x7c, 0x39,
  0x8a, 0x46, 0xd5, 0x3d, 0x5c, 0x56, 0x49, 0x3d, 0x6c, 0xe4, 0x2c, 0x3d,
  0xce, 0xc4, 0xcc, 0xbd, 0x00, 0x7f, 0xb1, 0xbd, 0xb0, 0x8b, 0x0a, 0xbc,
  0x00, 0x46, 0x23, 0xbd, 0xde, 0x0b, 0xcf, 0xbd, 0x80, 0x88, 0x68, 0xbd,
  0xa0, 0x87, 0x57, 0xbc, 0x03, 0x07, 0x55, 0x3e, 0x32, 0xe5, 0x64, 0xbe,
  0x9a, 0x6b, 0xc3, 0xbd, 0x08, 0x6f, 0xd1, 0x3c, 0x54, 0x14, 0x4e, 0xbe,
  0x63, 0x42, 0xee, 0xbd, 0x9c, 0x78, 0x10, 0xbe, 0xa9, 0x8c, 0x5a, 0x3e,
  0xfa, 0x72, 0xb6, 0x3d, 0xe4, 0x92, 0x5a, 0x3d, 0x4c, 0xf7, 0x26, 0x3d,
  0xe1, 0x10, 0xfc, 0xbd, 0x38, 0x33, 0x89, 0xbc, 0x19, 0x99, 0x67, 0xbe,
  0xb3, 0x9c, 0x51, 0x3e, 0xe0, 0x19, 0x58, 0xbd, 0xaa, 0x07, 0x90, 0xbd,
  0xba, 0x99, 0xd3, 0xbd, 0x29, 0x5c, 0x27, 0x3e, 0x74, 0x1a, 0x1e, 0x3d,
  0x98, 0x63, 0xb5, 0xbc, 0x40, 0x47, 0x7f, 0x3b, 0x6b, 0x0f, 0x07, 0x3e,
  0x48, 0x27, 0xf0, 0xbc, 0xea, 0xc6, 0xc1, 0x3d, 0x00, 0x82, 0x63, 0xbc,
  0x96, 0x55, 0xd4, 0x3d, 0x5b, 0xa4, 0x01, 0xbe, 0x18, 0x06, 0x58, 0xbd,
  0xc4, 0xaf, 0x1b, 0xbe, 0x70, 0xf7, 0x39, 0x3c, 0x30, 0xc2, 0xe9, 0xbc,
  0x41, 0x18, 0x65, 0x3e, 0xc4, 0xa1, 0x34, 0x3d, 0xac, 0x60, 0xc7, 0xbd,
  0xee, 0x65, 0xd8, 0x3d, 0x0c, 0x5a, 0x08, 0x3d, 0x6c, 0x0b, 0x4f, 0xbe,
  0x95, 0x1a, 0x0f, 0x3e, 0x7d, 0xf9, 0x57, 0x3e, 0x6e, 0xc0, 0xbb, 0xbd,
  0x66, 0x22, 0xb1, 0xbd, 0xae, 0xc8, 0xf0, 0x3d, 0x3c, 0xee, 0x55, 0xbd,
  0x1c, 0x63, 0x44, 0xbe, 0x0c, 0xf0, 0x48, 0x3d, 0xd0, 0x9f, 0xa0, 0xbd,
  0x00, 0x9e, 0xeb, 0x3b, 0x9c, 0xb9, 0x22, 0xbe, 0x7e, 0xdb, 0x9c, 0xbd,
  0xae, 0x4c, 0x60, 0xbe, 0x58, 0x8a, 0xda, 0xbc, 0x52, 0xa9, 0x8f, 0xbd,
  0xdf, 0x56, 0x53, 0x3e, 0xa8, 0x12, 0xfd, 0xbc, 0x17, 0xfd, 0x41, 0x3e,
  0xe4, 0x12, 0x62, 0x3d, 0x10, 0xae, 0x2a, 0x3c, 0xa6, 0x55, 0x05, 0xbe,
  0x8a, 0xc9, 0x26, 0xbe, 0x60, 0x6d, 0x9a, 0xbc, 0xe0, 0xbc, 0x86, 0x3c,
  0xc0, 0x40, 0x33, 0xbb, 0x11, 0xa5, 0x47, 0x3e, 0x6b, 0xda, 0xdc, 0xbd,
  0x5e, 0x65, 0xc8, 0x3d, 0x5e, 0x69, 0xe7, 0x3d, 0x03, 0x28, 0x15, 0xbe,
  0x2c, 0x3b, 0x5d, 0xbd, 0x52, 0x20, 0x31, 0xbe, 0x70, 0xe7, 0xe4, 0xbc,
  0x7d, 0x4a, 0x34, 0xbe, 0x75, 0x64, 0x2b, 0x3e, 0xe0, 0x48, 0x38, 0xbd,
  0x56, 0x84, 0xa5, 0xbd, 0x7c, 0xae, 0x90, 0xbd, 0xc2, 0x46, 0xd9, 0x3d,
  0xe2, 0xba, 0xcb, 0x3d, 0x19, 0x9b, 0x48, 0xbe, 0x4c, 0x7f, 0xf1, 0xbd,
  0x60, 0x52, 0x5d, 0x3c, 0x18, 0x77, 0x5e, 0xbe, 0x6b, 0xda, 0x48, 0xbe,
  0x85, 0x47, 0x47, 0xbe, 0xc0, 0xd2, 0x6b, 0xbc, 0xce, 0xd0, 0x3b, 0xbe,
  0x14, 0x77, 0x64, 0x3d, 0x5b, 0xc6, 0x35, 0xbe, 0x4d, 0x60, 0x64, 0x3e,
  0xfc, 0x67, 0xc3, 0xbd, 0xec, 0xa6, 0xa3, 0xbd, 0x54, 0xe9, 0x4c, 0xbe,
  0x80, 0x81, 0xaa, 0x3b, 0xe9, 0x04, 0x65, 0x3e, 0x18, 0x91, 0x56, 0xbe,
  0x77, 0x39, 0x5f, 0xbe, 0x44, 0xd1, 0x09, 0xbd, 0xd8, 0xfd, 0x2e, 0xbd,
  0x6d, 0xfe, 0x02, 0x3e, 0xc0, 0xbd, 0x1f, 0xbd, 0xe0, 0x59, 0x5b, 0xbe,
  0x18, 0xda, 0xc6, 0xbc, 0xcb, 0x26, 0x05, 0x3e, 0x64, 0x15, 0x1e, 0xbd,
  0x48, 0xc4, 0xce, 0xbc, 0x3e, 0xfa, 0xff, 0xff, 0x04, 0x00, 0x00, 0x00,
  0x90, 0x01, 0x00, 0x00, 0xbe, 0xad, 0xc4, 0xbd, 0x49, 0x3f, 0xaa, 0xbe,
  0x69, 0xdc, 0x33, 0x3d, 0x63, 0x83, 0x12, 0x3e, 0xfc, 0xdd, 0x21, 0x3e,
  0x1a, 0x95, 0xa6, 0xbe, 0xe0, 0xac, 0xd2, 0x3e, 0x60, 0x4e, 0x88, 0x3e,
  0xa6, 0x4a, 0xa8, 0xbe, 0xe4, 0xcf, 0x62, 0x3e, 0x8e, 0x38, 0xe1, 0x3d,
  0xe8, 0xec, 0x26, 0x3e, 0xe8, 0x7d, 0x16, 0x3e, 0x9e, 0x82, 0x5e, 0xbe,
  0x20, 0x48, 0x1a, 0x3e, 0x6b, 0x0a, 0x84, 0xbe, 0x05, 0x8d, 0xa3, 0x3e,
  0x39, 0xba, 0x8d, 0xbe, 0x43, 0xa8, 0x83, 0xbe, 0xa9, 0xf9, 0x8d, 0x3e,
  0xe6, 0xa7, 0x08, 0xbe, 0xa4, 0x77, 0x2d, 0x3e, 0xfe, 0x36, 0xfa, 0xbd,
  0x2d, 0xc4, 0x4f, 0x3e, 0x61, 0x77, 0x7d, 0x3e, 0x8f, 0x10, 0x40, 0xbe,
  0xd7, 0xa8, 0xab, 0xbd, 0x4d, 0xff, 0xe5, 0xbd, 0x96, 0x78, 0xa8, 0x3e,
  0x0b, 0xdb, 0x43, 0xbd, 0xfe, 0xbb, 0xc7, 0x3d, 0x5d, 0x47, 0x3e, 0xbd,
  0x14, 0x75, 0x8d, 0x3e, 0xa0, 0xbe, 0x2f, 0xbe, 0xd8, 0xc6, 0x3d, 0x3d,
  0x94, 0x2a, 0xb1, 0x3d, 0x56, 0xc1, 0xa5, 0x3d, 0x5d, 0xb2, 0xd7, 0x3e,
  0xc0, 0x72, 0x9e, 0xbc, 0x33, 0xec, 0x13, 0x3d, 0x0a, 0xa9, 0x74, 0xbd,
  0xd0, 0x30, 0xa0, 0xbe, 0xb6, 0xab, 0x72, 0xbe, 0x80, 0xe9, 0x2c, 0xbc,
  0x20, 0x4e, 0x67, 0x3e, 0xef, 0xa3, 0x28, 0xbe, 0xcb, 0x92, 0x43, 0x3e,
  0x48, 0x87, 0x90, 0xbe, 0x94, 0x15, 0xac, 0xbe, 0x2c, 0xfc, 0x28, 0xbe,
  0x15, 0x2c, 0x4c, 0xbe, 0x3e, 0x7e, 0x9f, 0x3e, 0x09, 0x1e, 0x95, 0x3e,
  0xdd, 0x7c, 0x94, 0x3e, 0x81, 0x88, 0xfe, 0x3c, 0xab, 0xbf, 0xa2, 0x3e,
  0x25, 0xbd, 0x8a, 0xbe, 0xad, 0xdf, 0x79, 0xbd, 0x79, 0xcc, 0x2b, 0xbe,
  0xcc, 0x7e, 0x46, 0x3e, 0x62, 0x01, 0x1f, 0x3d, 0x40, 0xa6, 0x6d, 0x3c,
  0xe2, 0x92, 0x41, 0xbe, 0x44, 0xc4, 0x43, 0x3e, 0x77, 0x3b, 0x5d, 0x3d,
  0x08, 0x83, 0x77, 0x3d, 0xf1, 0xea, 0xa9, 0xbe, 0xe3, 0x9e, 0x80, 0x3e,
  0xfc, 0x2f, 0xd0, 0xbd, 0xfa, 0x9b, 0x61, 0x3e, 0x82, 0x2b, 0x8b, 0x3e,
  0x80, 0x06, 0x50, 0x3e, 0xe1, 0x31, 0x8b, 0xbe, 0xb6, 0x57, 0x6e, 0xbe,
  0xb4, 0xe6, 0x89, 0x3e, 0x50, 0xf3, 0x56, 0x3d, 0x97, 0x74, 0x99, 0x3e,
  0x3a, 0xb5, 0xae, 0xbd, 0x8c, 0x0e, 0x65, 0x3e, 0x7b, 0x24, 0x2f, 0xbe,
  0xf1, 0xb5, 0x19, 0x3e, 0xab, 0xa0, 0x7a, 0x3e, 0x58, 0xf7, 0x7e, 0x3e,
  0x98, 0xab, 0x3f, 0x3e, 0x00, 0x4f, 0xde, 0xbc, 0x21, 0x57, 0x14, 0xbe,
  0xc7, 0xe4, 0xa1, 0x3d, 0x85, 0xee, 0x13, 0x3e, 0x7f, 0x24, 0x0d, 0xbe,
  0x2f, 0x5d, 0xd7, 0xbd, 0xbc, 0x25, 0x1d, 0xbe, 0x49, 0xd3, 0x85, 0x3e,
  0x14, 0x06, 0x49, 0xbe, 0x60, 0xff, 0xc0, 0x3d, 0x52, 0x1b, 0x58, 0x3e,
  0xf5, 0xc2, 0x89, 0x3e, 0xb7, 0xd8, 0x9e, 0x3e, 0xaa, 0xf9, 0x13, 0x3e,
  0x18, 0xec, 0x14, 0x3d, 0xd0, 0x2e, 0xb2, 0x3d, 0xda, 0xfb, 0xff, 0xff,
  0x04, 0x00, 0x00, 0x00, 0x00, 0x04, 0x00, 0x00, 0x1a, 0x72, 0x1e, 0xbe,
  0x7a, 0x36, 0x95, 0xbd, 0xe6, 0xc6, 0x9a, 0xbd, 0x60, 0xb0, 0xcf, 0x3d,
  0xc7, 0xc7, 0xff, 0xbd, 0xe0, 0xe5, 0xae, 0x3b, 0xb8, 0x3f, 0x8b, 0x3d,
  0x18, 0xe6, 0xce, 0x3c, 0x4a, 0xc4, 0x27, 0x3e, 0x2f, 0x37, 0xcb, 0x3d,
  0xbf, 0xac, 0x4b, 0xbe, 0xb9, 0x5a, 0xa9, 0x3d, 0xb0, 0x6c, 0x7b, 0xbc,
  0x76, 0x09, 0x0c, 0xbe, 0xea, 0xd9, 0x3d, 0xbe, 0xc0, 0xf6, 0x25, 0x3b,
  0x20, 0xd1, 0xba, 0xbb, 0xc4, 0x19, 0x26, 0xbe, 0x92, 0xbf, 0x06, 0xbe,
  0x96, 0x2b, 0xc1, 0xbd, 0x22, 0x0d, 0x25, 0x3e, 0xd4, 0x9e, 0x92, 0x3d,
  0x66, 0xd8, 0xbe, 0xbd, 0xf5, 0xa9, 0x19, 0x3c, 0x94, 0xea, 0x2d, 0x3d,
  0x6b, 0x70, 0xdf, 0xbd, 0x2b, 0xe9, 0xad, 0x3d, 0x6d, 0xb1, 0x22, 0xbe,
  0x28, 0x98, 0x2c, 0xbe, 0x39, 0x62, 0x23, 0xbe, 0x93, 0xcd, 0xed, 0xbd,
  0x78, 0xc2, 0x21, 0xbe, 0x05, 0xb6, 0x4f, 0xbe, 0xe0, 0x68, 0x14, 0xbe,
  0xa4, 0x7f, 0xbb, 0x3d, 0xa2, 0xee, 0xb9, 0xbd, 0x9b, 0xdb, 0x52, 0x3e,
  0x52, 0x06, 0x74, 0xbe, 0x52, 0xd8, 0x84, 0xbd, 0x54, 0x61, 0x8d, 0x3c,
  0x69, 0x06, 0x1e, 0xbe, 0x97, 0xe7, 0x28, 0x3e, 0x38, 0xc7, 0xfa, 0x3d,
  0x0e, 0xd1, 0x18, 0xbe, 0x7b, 0xaa, 0x2e, 0xbe, 0xc3, 0x48, 0xb2, 0x3d,
  0xbe, 0x5b, 0x03, 0x3e, 0x3c, 0x92, 0xa1, 0x3e, 0x8e, 0x49, 0xae, 0xbd,
  0x7e, 0xb2, 0x30, 0xbe, 0x50, 0xdc, 0x79, 0xbd, 0xe0, 0x54, 0xeb, 0xbd,
  0xf0, 0x48, 0xbe, 0xbc, 0x90, 0x55, 0xca, 0x3d, 0xfb, 0x29, 0x00, 0x3e,
  0xa7, 0x0e, 0x37, 0xbe, 0x2a, 0x03, 0xa2, 0xbc, 0x4a, 0xe0, 0x4a, 0x3e,
  0x1d, 0xcc, 0x93, 0xbd, 0x36, 0xc4, 0x87, 0x3e, 0x74, 0x4f, 0xa9, 0xbd,
  0x9e, 0x69, 0xb3, 0x3b, 0x29, 0x8a, 0x4c, 0x3e, 0xca, 0xdb, 0xfa, 0xbd,
  0xe5, 0x07, 0xa5, 0x3d, 0x5a, 0x2a, 0x1a, 0xbe, 0xdc, 0xcb, 0x76, 0x3c,
  0x7f, 0x1a, 0xc0, 0xbd, 0x57, 0xdf, 0x0c, 0x3e, 0x37, 0x76, 0x4c, 0x3e,
  0xe1, 0xe2, 0x07, 0x3e, 0x2a, 0xe5, 0x07, 0xbe, 0x50, 0x97, 0x29, 0x3e,
  0x55, 0x26, 0xb6, 0xbd, 0x48, 0xc7, 0x4e, 0xbe, 0x8f, 0xa4, 0x8b, 0x3e,
  0xc3, 0x01, 0x9a, 0xbd, 0x86, 0x02, 0x8a, 0x3d, 0x72, 0xb9, 0x7c, 0x3e,
  0xc4, 0x75, 0x61, 0x3e, 0x30, 0x83, 0x45, 0x3e, 0xb0, 0x2a, 0xd4, 0x3c,
  0x41, 0xea, 0x53, 0xbe, 0x14, 0x60, 0x3f, 0xbd, 0xa5, 0x7b, 0xf2, 0x3b,
  0x2f, 0x6a, 0x71, 0xbb, 0xbb, 0xd0, 0x19, 0x3e, 0x01, 0xff, 0x8b, 0x3d,
  0x94, 0x79, 0x4e, 0xbd, 0xf4, 0xed, 0x27, 0xbd, 0x20, 0x68, 0x6c, 0x3d,
  0x3c, 0xa4, 0x83, 0xbd, 0x89, 0xc1, 0xff, 0xbd, 0x72, 0x65, 0x33, 0x3e,
  0x53, 0x23, 0xf6, 0x3d, 0x84, 0x6a, 0x21, 0x3e, 0x30, 0x5e, 0x36, 0xbe,
  0x64, 0xc0, 0xae, 0x3d, 0x2a, 0xb2, 0x27, 0xbe, 0x4c, 0xc5, 0xc0, 0x3d,
  0x80, 0x1d, 0xf4, 0x3c, 0x58, 0x2c, 0x19, 0x3d, 0x0e, 0xf5, 0x3b, 0xbe,
  0xac, 0xf5, 0x18, 0xbd, 0x56, 0xc3, 0xc7, 0xbd, 0x2c, 0x15, 0xdf, 0xbd,
  0x48, 0x72, 0xde, 0x3d, 0x4a, 0x43, 0x4f, 0xbe, 0x76, 0x7f, 0xf0, 0x3c,
  0x6a, 0x3b, 0x82, 0x3d, 0x11, 0xea, 0xa4, 0xbd, 0x6f, 0x21, 0x3f, 0x3e,
  0xbe, 0x5c, 0x1c, 0xbe, 0xcc, 0xcd, 0x9b, 0xba, 0x8a, 0xa2, 0x12, 0x3e,
  0x41, 0x56, 0x4c, 0xbd, 0x71, 0x1c, 0x8d, 0xbc, 0x2f, 0x10, 0x42, 0xbe,
  0xf0, 0x18, 0x13, 0x3e, 0x3c, 0xfc, 0xaa, 0x3d, 0xbc, 0x63, 0x48, 0x3e,
  0x78, 0x16, 0x56, 0xbe, 0x66, 0x3a, 0x49, 0xbe, 0xe4, 0x88, 0xa9, 0x3d,
  0xd8, 0xa4, 0x38, 0x3d, 0xa0, 0x65, 0x39, 0xbd, 0xa2, 0x72, 0xbf, 0xbd,
  0x80, 0x9c, 0x06, 0xbc, 0xe2, 0x17, 0x37, 0x3e, 0x6c, 0xe7, 0x24, 0xbe,
  0x8f, 0x9a, 0x41, 0xbe, 0x70, 0x85, 0x67, 0x3d, 0x80, 0xb3, 0x9b, 0xbd,
  0xc0, 0x9f, 0x76, 0xbc, 0x90, 0x37, 0x71, 0x3d, 0x50, 0xc0, 0x5d, 0xbc,
  0x38, 0x94, 0x02, 0x3d, 0x14, 0xb4, 0x0e, 0xbe, 0x00, 0x5c, 0x72, 0xbb,
  0xfc, 0xa9, 0x07, 0xbe, 0xe9, 0xc1, 0xe0, 0x3d, 0x78, 0x65, 0x2a, 0xbe,
  0x61, 0x1e, 0x89, 0x3e, 0x37, 0x9b, 0xde, 0x3d, 0xe0, 0xb5, 0x90, 0x3c,
  0xaf, 0x80, 0x76, 0xbd, 0xf3, 0x1d, 0x1a, 0xbd, 0xe5, 0x56, 0x25, 0x3e,
  0xad, 0xb3, 0x39, 0x3e, 0x17, 0xae, 0x9d, 0x3c, 0x3a, 0x17, 0x44, 0xbe,
  0xc8, 0x75, 0x28, 0x3d, 0x7c, 0xae, 0x01, 0xbe, 0x10, 0xf1, 0xae, 0xbc,
  0xe4, 0xe8, 0x80, 0x3d, 0xd2, 0x4e, 0x82, 0xbd, 0x4e, 0x98, 0x4e, 0x3e,
  0xf1, 0x75, 0xc5, 0x3b, 0x82, 0xc8, 0x53, 0xbe, 0x5f, 0xff, 0x80, 0x3e,
  0x36, 0x79, 0x50, 0x3a, 0x86, 0x6e, 0x7e, 0xbe, 0x8e, 0xfe, 0xfa, 0x3d,
  0x3a, 0x69, 0x9e, 0x3d, 0x10, 0xb0, 0x09, 0xbe, 0x90, 0x0f, 0x41, 0x3d,
  0x2c, 0x60, 0x9b, 0x3d, 0x58, 0xbc, 0xfe, 0xbd, 0xc3, 0x85, 0x35, 0xbe,
  0x84, 0xf2, 0xd0, 0xbd, 0x70, 0x90, 0x02, 0x3e, 0x6c, 0x18, 0x11, 0x3d,
  0x47, 0xda, 0xdf, 0x3d, 0x4e, 0x84, 0xa1, 0xbd, 0xca, 0xf4, 0x3b, 0xbe,
  0x4c, 0x3e, 0x21, 0x3e, 0x2c, 0x19, 0x37, 0x3e, 0x69, 0xb3, 0x2b, 0xbe,
  0xd1, 0x94, 0x13, 0x3e, 0xca, 0x68, 0x1f, 0x3e, 0x76, 0xf5, 0x0d, 0x3e,
  0x88, 0x47, 0xf1, 0x3d, 0x8b, 0x03, 0x83, 0x3d, 0x0a, 0x1c, 0xfd, 0x3d,
  0xe0, 0x0d, 0x0f, 0x3e, 0x50, 0xa5, 0x22, 0xbe, 0x09, 0x16, 0x3c, 0xbe,
  0xfc, 0xae, 0x4e, 0xbd, 0xca, 0x9f, 0x86, 0xbd, 0x3b, 0x8f, 0x51, 0xbe,
  0xa0, 0x90, 0xf6, 0xbc, 0x86, 0xb8, 0x54, 0x3e, 0x94, 0x5c, 0x31, 0x3e,
  0xb5, 0x44, 0x21, 0xbd, 0x4f, 0x34, 0x3f, 0xbe, 0x32, 0x58, 0x1c, 0x3c,
  0x22, 0x17, 0x0a, 0xbe, 0x00, 0x44, 0x9c, 0x3d, 0xb8, 0x2a, 0x2f, 0xbd,
  0xee, 0x42, 0x19, 0xbe, 0x37, 0x7c, 0xbb, 0x3d, 0x87, 0xdb, 0x20, 0xbe,
  0xa8, 0x97, 0x16, 0x3e, 0xcc, 0x3d, 0x0b, 0xbe, 0x73, 0xe1, 0x57, 0xbe,
  0xd8, 0xff, 0x9c, 0xbc, 0xec, 0x67, 0xa0, 0x3d, 0x5a, 0xad, 0x46, 0xbe,
  0x0f, 0xbb, 0xcd, 0x3d, 0x0c, 0xf0, 0x74, 0x3e, 0x3c, 0x6f, 0x77, 0x3e,
  0x4e, 0xef, 0x58, 0x3e, 0xc8, 0xb8, 0x80, 0xbd, 0x89, 0x84, 0xdd, 0xbd,
  0xd6, 0xc1, 0x64, 0x3e, 0x72, 0x9a, 0xd9, 0xbc, 0x2a, 0x36, 0x0b, 0x3e,
  0xed, 0x47, 0x1f, 0x3e, 0x20, 0x85, 0x09, 0x3e, 0x64, 0xce, 0x30, 0x3e,
  0xf0, 0xfd, 0x36, 0x3e, 0xea, 0x2d, 0x93, 0xbc, 0x05, 0xe3, 0xa4, 0x3c,
  0x32, 0x06, 0x8f, 0xbe, 0xe9, 0x9a, 0x26, 0xbe, 0x40, 0x6a, 0x6c, 0xbd,
  0x10, 0x93, 0x05, 0xbe, 0x48, 0x2b, 0xd9, 0x3d, 0x6b, 0x79, 0x0d, 0x3e,
  0x22, 0xc9, 0x08, 0x3e, 0xff, 0x33, 0xeb, 0x3d, 0x44, 0xe8, 0x2b, 0xbd,
  0x5b, 0x2e, 0x4c, 0x3d, 0xae, 0x8b, 0x9f, 0x3d, 0x4b, 0x53, 0x8a, 0x3e,
  0x57, 0x72, 0x6d, 0x3d, 0x43, 0xbb, 0x56, 0xbe, 0x22, 0x6f, 0x21, 0xbe,
  0x7d, 0x25, 0xc7, 0xbd, 0x4c, 0x09, 0x26, 0x3e, 0xb8, 0x69, 0x8e, 0xbd,
  0xfc, 0x76, 0x10, 0xbe, 0xf4, 0x19, 0xe7, 0x3d, 0x2b, 0x41, 0xde, 0xbd,
  0x80, 0x36, 0x5b, 0x3c, 0xa0, 0x0f, 0xff, 0xbd, 0x5a, 0x62, 0xa0, 0xbd,
  0xd3, 0x3b, 0x4b, 0xbe, 0x54, 0x40, 0x07, 0xbd, 0x47, 0xd7, 0x4d, 0xbe,
  0x90, 0x9a, 0xc3, 0x3c, 0x70, 0x55, 0x8b, 0xbd, 0x80, 0xa0, 0x0b, 0xbb,
  0xba, 0xc3, 0x13, 0xbe, 0x80, 0x94, 0x58, 0xbe, 0x38, 0x82, 0x90, 0xbd,
  0xe6, 0xff, 0xff, 0xff, 0x04, 0x00, 0x00, 0x00, 0x0c, 0x00, 0x00, 0x00,
  0xff, 0xff, 0xff, 0xff, 0x02, 0x00, 0x00, 0x00, 0x40, 0x00, 0x00, 0x00,
  0x00, 0x00, 0x06, 0x00, 0x08, 0x00, 0x04, 0x00, 0x06, 0x00, 0x00, 0x00,
  0x04, 0x00, 0x00, 0x00, 0x00, 0x01, 0x00, 0x00, 0x00, 0x00, 0x00, 0x00,
  0x00, 0x00, 0x00, 0x00, 0x15, 0x94, 0x94, 0xbb, 0x00, 0x00, 0x00, 0x00,
  0x00, 0x00, 0x00, 0x00, 0x0a, 0xe9, 0xc2, 0xbc, 0x7f, 0xae, 0xe0, 0xbd,
  0x00, 0x00, 0x00, 0x00, 0x00, 0x00, 0x00, 0x00, 0xf6, 0x23, 0x95, 0xbd,
  0x3d, 0xa4, 0x0d, 0xbc, 0xc0, 0x26, 0x12, 0xb7, 0x00, 0x00, 0x00, 0x00,
  0xc8, 0x76, 0xa0, 0xbd, 0x3e, 0xc7, 0x8e, 0x3d, 0xaf, 0x14, 0x7e, 0xbd,
  0x18, 0x97, 0x00, 0xbe, 0x64, 0x34, 0xcc, 0xbc, 0x20, 0x7e, 0x49, 0x3d,
  0xcb, 0xb9, 0x60, 0xbc, 0x00, 0x00, 0x00, 0x00, 0x65, 0x8a, 0xd2, 0xbd,
  0x00, 0x00, 0x00, 0x00, 0x43, 0x90, 0x8f, 0x38, 0x00, 0x00, 0x00, 0x00,
  0x00, 0x00, 0x00, 0x00, 0x00, 0x00, 0x00, 0x00, 0xec, 0x7d, 0x19, 0xbd,
  0xbf, 0xfd, 0x61, 0xbc, 0xcb, 0x4c, 0x37, 0xbd, 0x00, 0x00, 0x00, 0x00,
  0x00, 0x00, 0x00, 0x00, 0x00, 0x00, 0x00, 0x00, 0x00, 0x00, 0x00, 0x00,
  0x00, 0x00, 0x00, 0x00, 0xa1, 0x2e, 0xa5, 0xbd, 0x7a, 0x70, 0x25, 0xbd,
  0x09, 0x7f, 0xe3, 0xbc, 0x00, 0x00, 0x00, 0x00, 0xdb, 0x15, 0xa7, 0xbc,
  0x00, 0x8e, 0xdc, 0xbd, 0x00, 0x00, 0x00, 0x00, 0x00, 0x00, 0x00, 0x00,
  0xe7, 0xcc, 0x17, 0xbc, 0x97, 0xe9, 0x5b, 0xbc, 0xa4, 0xc1, 0x9c, 0xbc,
  0x00, 0x00, 0x00, 0x00, 0x00, 0x00, 0x00, 0x00, 0xf3, 0x1b, 0x43, 0xbc,
  0x00, 0x00, 0x00, 0x00, 0xce, 0xaf, 0xb3, 0xbd, 0x00, 0x00, 0x00, 0x00,
  0xb2, 0x5d, 0x83, 0xbc, 0x60, 0x1d, 0x79, 0xbd, 0x93, 0x4d, 0x9b, 0xbd,
  0xdb, 0x8b, 0x1a, 0xbd, 0x00, 0x00, 0x00, 0x00, 0xec, 0x5b, 0xb2, 0xbc,
  0x14, 0xdc, 0xca, 0xbc, 0x00, 0x00, 0x00, 0x00, 0x00, 0x00, 0x00, 0x00,
  0x00, 0x00, 0x00, 0x00, 0x00, 0x00, 0x00, 0x00, 0x00, 0x00, 0x00, 0x00,
  0xf4, 0xf5, 0xff, 0xff, 0xf8, 0xf5, 0xff, 0xff, 0x0f, 0x00, 0x00, 0x00,
  0x4d, 0x4c, 0x49, 0x52, 0x20, 0x43, 0x6f, 0x6e, 0x76, 0x65, 0x72, 0x74,
  0x65, 0x64, 0x2e, 0x00, 0x01, 0x00, 0x00, 0x00, 0x14, 0x00, 0x00, 0x00,
  0x00, 0x00, 0x0e, 0x00, 0x18, 0x00, 0x14, 0x00, 0x10, 0x00, 0x0c, 0x00,
  0x08, 0x00, 0x04, 0x00, 0x0e, 0x00, 0x00, 0x00, 0x14, 0x00, 0x00, 0x00,
  0x1c, 0x00, 0x00, 0x00, 0x1c, 0x02, 0x00, 0x00, 0x20, 0x02, 0x00, 0x00,
  0x24, 0x02, 0x00, 0x00, 0x04, 0x00, 0x00, 0x00, 0x6d, 0x61, 0x69, 0x6e,
  0x00, 0x00, 0x00, 0x00, 0x08, 0x00, 0x00, 0x00, 0xd4, 0x01, 0x00, 0x00,
  0x70, 0x01, 0x00, 0x00, 0x38, 0x01, 0x00, 0x00, 0xfc, 0x00, 0x00, 0x00,
  0xa8, 0x00, 0x00, 0x00, 0x80, 0x00, 0x00, 0x00, 0x3c, 0x00, 0x00, 0x00,
  0x04, 0x00, 0x00, 0x00, 0xba, 0xfe, 0xff, 0xff, 0x14, 0x00, 0x00, 0x00,
  0x00, 0x00, 0x00, 0x08, 0x10, 0x00, 0x00, 0x00, 0x14, 0x00, 0x00, 0x00,
  0x04, 0x00, 0x00, 0x00, 0x88, 0xf6, 0xff, 0xff, 0x01, 0x00, 0x00, 0x00,
  0x12, 0x00, 0x00, 0x00, 0x03, 0x00, 0x00, 0x00, 0x11, 0x00, 0x00, 0x00,
  0x04, 0x00, 0x00, 0x00, 0x06, 0x00, 0x00, 0x00, 0xee, 0xfe, 0xff, 0xff,
  0x1c, 0x00, 0x00, 0x00, 0x00, 0x00, 0x00, 0x08, 0x1c, 0x00, 0x00, 0x00,
  0x20, 0x00, 0x00, 0x00, 0x04, 0x00, 0x00, 0x00, 0x00, 0x00, 0x06, 0x00,
  0x08, 0x00, 0x07, 0x00, 0x06, 0x00, 0x00, 0x00, 0x00, 0x00, 0x00, 0x01,
  0x01, 0x00, 0x00, 0x00, 0x11, 0x00, 0x00, 0x00, 0x03, 0x00, 0x00, 0x00,
  0x10, 0x00, 0x00, 0x00, 0x05, 0x00, 0x00, 0x00, 0x07, 0x00, 0x00, 0x00,
  0x5e, 0xff, 0xff, 0xff, 0x0c, 0x00, 0x00, 0x00, 0x10, 0x00, 0x00, 0x00,
  0x02, 0x00, 0x00, 0x00, 0x01, 0x00, 0x00, 0x00, 0x10, 0x00, 0x00, 0x00,
  0x02, 0x00, 0x00, 0x00, 0x0f, 0x00, 0x00, 0x00, 0x09, 0x00, 0x00, 0x00,
  0x52, 0xff, 0xff, 0xff, 0x24, 0x00, 0x00, 0x00, 0x00, 0x00, 0x00, 0x05,
  0x34, 0x00, 0x00, 0x00, 0x38, 0x00, 0x00, 0x00, 0x03, 0x00, 0x00, 0x00,
  0x00, 0x00, 0x0e, 0x00, 0x18, 0x00, 0x17, 0x00, 0x10, 0x00, 0x0c, 0x00,
  0x08, 0x00, 0x04, 0x00, 0x0e, 0x00, 0x00, 0x00, 0x01, 0x00, 0x00, 0x00,
  0x02, 0x00, 0x00, 0x00, 0x01, 0x00, 0x00, 0x00, 0x02, 0x00, 0x00, 0x00,
  0x00, 0x00, 0x00, 0x01, 0x01, 0x00, 0x00, 0x00, 0x0f, 0x00, 0x00, 0x00,
  0x01, 0x00, 0x00, 0x00, 0x0e, 0x00, 0x00, 0x00, 0x42, 0xff, 0xff, 0xff,
  0x10, 0x00, 0x00, 0x00, 0x00, 0x00, 0x00, 0x34, 0x0c, 0x00, 0x00, 0x00,
  0x10, 0x00, 0x00, 0x00, 0x6c, 0xf7, 0xff, 0xff, 0x01, 0x00, 0x00, 0x00,
  0x0e, 0x00, 0x00, 0x00, 0x02, 0x00, 0x00, 0x00, 0x0d, 0x00, 0x00, 0x00,
  0x08, 0x00, 0x00, 0x00, 0x00, 0x00, 0x0a, 0x00, 0x10, 0x00, 0x0c, 0x00,
  0x08, 0x00, 0x04, 0x00, 0x0a, 0x00, 0x00, 0x00, 0x0c, 0x00, 0x00, 0x00,
  0x10, 0x00, 0x00, 0x00, 0x02, 0x00, 0x00, 0x00, 0x01, 0x00, 0x00, 0x00,
  0x0d, 0x00, 0x00, 0x00, 0x02, 0x00, 0x00, 0x00, 0x0c, 0x00, 0x00, 0x00,
  0x02, 0x00, 0x00, 0x00, 0x00, 0x00, 0x0e, 0x00, 0x18, 0x00, 0x14, 0x00,
  0x10, 0x00, 0x0c, 0x00, 0x0b, 0x00, 0x04, 0x00, 0x0e, 0x00, 0x00, 0x00,
  0x20, 0x00, 0x00, 0x00, 0x00, 0x00, 0x00, 0x01, 0x2c, 0x00, 0x00, 0x00,
  0x30, 0x00, 0x00, 0x00, 0x01, 0x00, 0x00, 0x00, 0x0c, 0x00, 0x14, 0x00,
  0x13, 0x00, 0x0c, 0x00, 0x08, 0x00, 0x07, 0x00, 0x0c, 0x00, 0x00, 0x00,
  0x00, 0x00, 0x00, 0x01, 0x01, 0x00, 0x00, 0x00, 0x01, 0x00, 0x00, 0x00,
  0x00, 0x00, 0x00, 0x01, 0x01, 0x00, 0x00, 0x00, 0x0c, 0x00, 0x00, 0x00,
  0x03, 0x00, 0x00, 0x00, 0x0b, 0x00, 0x00, 0x00, 0x03, 0x00, 0x00, 0x00,
  0x01, 0x00, 0x00, 0x00, 0x00, 0x00, 0x0e, 0x00, 0x14, 0x00, 0x00, 0x00,
  0x10, 0x00, 0x0c, 0x00, 0x0b, 0x00, 0x04, 0x00, 0x0e, 0x00, 0x00, 0x00,
  0x10, 0x00, 0x00, 0x00, 0x00, 0x00, 0x00, 0x34, 0x0c, 0x00, 0x00, 0x00,
  0x10, 0x00, 0x00, 0x00, 0x38, 0xf8, 0xff, 0xff, 0x01, 0x00, 0x00, 0x00,
  0x0b, 0x00, 0x00, 0x00, 0x02, 0x00, 0x00, 0x00, 0x00, 0x00, 0x00, 0x00,
  0x0a, 0x00, 0x00, 0x00, 0x01, 0x00, 0x00, 0x00, 0x12, 0x00, 0x00, 0x00,
  0x01, 0x00, 0x00, 0x00, 0x00, 0x00, 0x00, 0x00, 0x13, 0x00, 0x00, 0x00,
  0x70, 0x07, 0x00, 0x00, 0x1c, 0x07, 0x00, 0x00, 0xc4, 0x06, 0x00, 0x00,
  0x64, 0x06, 0x00, 0x00, 0x24, 0x06, 0x00, 0x00, 0xe4, 0x05, 0x00, 0x00,
  0xa8, 0x05, 0x00, 0x00, 0x6c, 0x05, 0x00, 0x00, 0x30, 0x05, 0x00, 0x00,
  0xf0, 0x04, 0x00, 0x00, 0x8c, 0x04, 0x00, 0x00, 0x08, 0x04, 0x00, 0x00,
  0x20, 0x03, 0x00, 0x00, 0x68, 0x02, 0x00, 0x00, 0xe0, 0x01, 0x00, 0x00,
  0x64, 0x01, 0x00, 0x00, 0x00, 0x01, 0x00, 0x00, 0x60, 0x00, 0x00, 0x00,
  0x04, 0x00, 0x00, 0x00, 0xf2, 0xf8, 0xff, 0xff, 0x00, 0x00, 0x00, 0x01,
  0x14, 0x00, 0x00, 0x00, 0x1c, 0x00, 0x00, 0x00, 0x1c, 0x00, 0x00, 0x00,
  0x13, 0x00, 0x00, 0x00, 0x34, 0x00, 0x00, 0x00, 0x02, 0x00, 0x00, 0x00,
  0xff, 0xff, 0xff, 0xff, 0x02, 0x00, 0x00, 0x00, 0xd8, 0xf8, 0xff, 0xff,
  0x1b, 0x00, 0x00, 0x00, 0x53, 0x74, 0x61, 0x74, 0x65, 0x66, 0x75, 0x6c,
  0x50, 0x61, 0x72, 0x74, 0x69, 0x74, 0x69, 0x6f, 0x6e, 0x65, 0x64, 0x43,
  0x61, 0x6c, 0x6c, 0x5f, 0x31, 0x3a, 0x30, 0x00, 0x02, 0x00, 0x00, 0x00,
  0x01, 0x00, 0x00, 0x00, 0x02, 0x00, 0x00, 0x00, 0x4a, 0xf9, 0xff, 0xff,
  0x00, 0x00, 0x00, 0x01, 0x14, 0x00, 0x00, 0x00, 0x1c, 0x00, 0x00, 0x00,
  0x1c, 0x00, 0x00, 0x00, 0x12, 0x00, 0x00, 0x00, 0x78, 0x00, 0x00, 0x00,
  0x02, 0x00, 0x00, 0x00, 0xff, 0xff, 0xff, 0xff, 0x32, 0x00, 0x00, 0x00,
